[PAD]	0
[CLS]	0
[SEP]	0
[MASK]	0
<unk>	0
<s>	0
</s>	0
00	-0
อง	-1
ี่	-2
าร	-3
▁เ	-4
▁00	-5
ที่	-6
ระ	-7
ัน	-8
็น	-9
ใน	-10
ป็น	-11
ํา	-12
าย	-13
การ	-14
าง	-15
ีย	-16
แล	-17
่อ	-18
่ง	-19
▁0000	-20
าน	-21
ประ	-22
และ	-23
าก	-24
ับ	-25
▁(	-26
ของ	-27
มี	-28
ั้	-29
ือ	-30
เป็น	-31
ัก	-32
ร์	-33
ด้	-34
▁ค	-35
าม	-36
ัง	-37
▁เป็น	-38
เม	-39
เท	-40
้น	-41
▁พ	-42
▁0	-43
ื่อ	-44
คร	-45
ั้ง	-46
ริ	-47
าว	-48
▁และ	-49
หน	-50
ิน	-51
▁ส	-52
เก	-53
ได้	-54
ิด	-55
โด	-56
่น	-57
รา	-58
อย	-59
ภา	-60
เล	-61
▁ก	-62
วัน	-63
เทศ	-64
หล	-65
่า	-66
อก	-67
ัด	-68
่ว	-69
โดย	-70
มา	-71
ประเทศ	-72
จาก	-73
้า	-74
อน	-75
อร์	-76
เร	-77
หร	-78
▁อ	-79
เด	-80
ู่	-81
ปี	-82
่าง	-83
▁ใน	-84
ติ	-85
หม	-86
รร	-87
ึ่ง	-88
ตร	-89
อล	-90
▁แ	-91
เข	-92
ี้	-93
คม	-94
กล	-95
ิก	-96
กับ	-97
▁ต	-98
ให	-99
ทาง	-100
รั	-101
▁จ	-102
หว	-103
ู้	-104
▁"	-105
ิง	-106
ึง	-107
▁มี	-108
ทย	-109
เพ	-110
ัว	-111
ือง	-112
นา	-113
ว่า	-114
าล	-115
วง	-116
พระ	-117
อยู่	-118
▁()	-119
คว	-120
ขึ	-121
วันที่	-122
ขึ้น	-123
ราช	-124
วิ	-125
ลง	-126
่อง	-127
หรือ	-128
ชื่อ	-129
วย	-130
นี้	-131
ร้	-132
เน	-133
ุด	-134
เส	-135
นัก	-136
อา	-137
เว	-138
รก	-139
ียง	-140
▁โดย	-141
ถึง	-142
ผู้	-143
ทร	-144
ไม	-145
▁ซ	-146
่ม	-147
ัย	-148
าส	-149
ไป	-150
ช้	-151
▁ม	-152
ียน	-153
ิม	-154
เซ	-155
ชา	-156
โล	-157
ความ	-158
ให้	-159
ภาพ	-160
เจ	-161
ใช้	-162
แข	-163
อบ	-164
ตั้ง	-165
ต้	-166
▁เม	-167
ย์	-168
ิล	-169
จะ	-170
ชน	-171
ษา	-172
เมือง	-173
ปล	-174
าร์	-175
ออก	-176
โร	-177
ต่	-178
กร	-179
เอ	-180
เมื่อ	-181
กัน	-182
าคม	-183
▁น	-184
้ํา	-185
▁000	-186
ื่อง	-187
ส์	-188
ัล	-189
ห่ง	-190
ูก	-191
ิต	-192
ครั้ง	-193
ขัน	-194
เบ	-195
ณ์	-196
แบ	-197
รับ	-198
นต	-199
▁หรือ	-200
สม	-201
แข่ง	-202
ดับ	-203
เช	-204
ทํา	-205
กา	-206
เกิด	-207
ข้	-208
ั้น	-209
แข่งขัน	-210
ดี	-211
รี	-212
▁ประเทศ	-213
ตุ	-214
ด้วย	-215
รัฐ	-216
ดง	-217
เค	-218
อม	-219
▁บ	-220
ายน	-221
หนึ่ง	-222
▁ที่	-223
ตัว	-224
▁ร	-225
ไทย	-226
ที	-227
เต	-228
ทั	-229
ิส	-230
▁ซึ่ง	-231
▁โ	-232
แส	-233
แห่ง	-234
ตะ	-235
ทั้ง	-236
ด์	-237
ชาว	-238
ค์	-239
ันธ	-240
ที่ส	-241
วน	-242
จํา	-243
ไม่	-244
หว่าง	-245
่วน	-246
รรม	-247
กี	-248
หมาย	-249
ใต้	-250
ึก	-251
ี่ย	-252
ุม	-253
บัน	-254
an	-255
ัญ	-256
er	-257
จัก	-258
เป	-259
คล	-260
แก	-261
ังหว	-262
แรก	-263
ระหว่าง	-264
ทธ	-265
ต์	-266
in	-267
ต่อ	-268
on	-269
▁0000)	-270
่วม	-271
ังหวัด	-272
ดู	-273
ขึ้นใน	-274
น์	-275
ดิ	-276
ีก	-277
เภ	-278
ักษ	-279
็ก	-280
000	-281
จุ	-282
บอล	-283
หตุ	-284
ชาติ	-285
แสดง	-286
▁ป	-287
นิ	-288
ุล	-289
กีฬ	-290
บริ	-291
แบบ	-292
เมริ	-293
งาน	-294
การณ์	-295
ลา	-296
▁ได้	-297
อด	-298
่าน	-299
โลก	-300
เพลง	-301
ณะ	-302
่าย	-303
ุน	-304
สี	-305
ุ่น	-306
ัต	-307
สํา	-308
ผล	-309
ียว	-310
ที่เกิด	-311
ใหญ	-312
ละ	-313
ภาษา	-314
แม	-315
โอ	-316
ศาส	-317
คน	-318
องค์	-319
สิ	-320
หตุการณ์	-321
มาก	-322
ตะวัน	-323
ัจ	-324
คือ	-325
กีฬา	-326
เรีย	-327
สถ	-328
ชี	-329
ุต	-330
ังก	-331
ฤษ	-332
แต่	-333
้าน	-334
วม	-335
ันธ์	-336
▁s	-337
หาร	-338
าะ	-339
้อง	-340
ุ่ม	-341
อส	-342
ุก	-343
,000	-344
ใหญ่	-345
▁คือ	-346
▁ของ	-347
พื	-348
จัด	-349
ุง	-350
▁เหตุการณ์	-351
ที่เกิดขึ้นใน	-352
ar	-353
ปร	-354
ัจจุ	-355
เจ้า	-356
ตก	-357
ัจจุบัน	-358
่อน	-359
อย่าง	-360
ยัง	-361
รู	-362
บุ	-363
โม	-364
▁ด	-365
▁เก	-366
ส่วน	-367
อเมริ	-368
เย	-369
ประก	-370
en	-371
al	-372
ซี	-373
กระ	-374
จักร	-375
ได้รับ	-376
มิ	-377
▁ล	-378
มห	-379
ยนต	-380
ศ์	-381
ัส	-382
ที่มี	-383
ในปี	-384
วี	-385
อยู่ใน	-386
น้ํา	-387
ตาม	-388
ิมป	-389
or	-390
ื้	-391
การแข่งขัน	-392
เมื่อวันที่	-393
โอล	-394
สาม	-395
▁เพ	-396
ิมปิก	-397
th	-398
▁c	-399
ทีม	-400
ร้าง	-401
สู	-402
ถูก	-403
ฟุต	-404
อัน	-405
▁คน	-406
วงศ์	-407
ดน	-408
ยุ	-409
ําเภ	-410
▁ช	-411
แน	-412
เรื่อง	-413
หลัง	-414
ฤดู	-415
โอลิมปิก	-416
▁เข	-417
้ว	-418
▁ว	-419
ัม	-420
ศึก	-421
ตํา	-422
▁พระ	-423
ไฟ	-424
ครอง	-425
เหน	-426
หมายถึง	-427
าศ	-428
สา	-429
ศาสต	-430
โก	-431
ภาพยนต	-432
▁ท	-433
พิ	-434
ภาพยนตร์	-435
็จ	-436
ีน	-437
าร่วม	-438
ารถ	-439
เหล	-440
▁ณ	-441
กว่า	-442
ชาย	-443
ือน	-444
ต้น	-445
จังหวัด	-446
ศาสตร์	-447
เคร	-448
ปก	-449
เหนือ	-450
พรร	-451
▁เกิด	-452
หน้า	-453
ตรี	-454
นด์	-455
ฟุตบอล	-456
้าย	-457
นาด	-458
▁เมื่อ	-459
ประกอบ	-460
▁m	-461
at	-462
▁การ	-463
รม	-464
แก่	-465
เฉ	-466
่วง	-467
▁แต่	-468
▁ปี	-469
เขา	-470
ูล	-471
▁อา	-472
▁-	-473
ต่าง	-474
ยู	-475
▁–	-476
บล	-477
วรร	-478
▁ตั้ง	-479
ริ่ม	-480
ห์	-481
นั้น	-482
กํา	-483
ี่ป	-484
ญี่ป	-485
ญี่ปุ่น	-486
ครั้งที่	-487
ดิน	-488
านี	-489
เขต	-490
เล่น	-491
ยก	-492
ุทธ	-493
สน	-494
เศ	-495
พื้น	-496
โอลิมปิกฤดู	-497
แท	-498
ศัก	-499
สุด	-500
ณา	-501
ื้อ	-502
ื่น	-503
ด้าน	-504
อาก	-505
อิน	-506
▁เป็นนัก	-507
ราย	-508
หรับ	-509
สร้าง	-510
กลาง	-511
ยา	-512
ิว	-513
เข้า	-514
▁ไ	-515
โน	-516
ร้อน	-517
เรียน	-518
กิ	-519
es	-520
ําเภอ	-521
หลาย	-522
ัฐ	-523
อากาศ	-524
ที่สุด	-525
นํา	-526
เสียง	-527
ัติ	-528
ic	-529
แลนด์	-530
▁สิง	-531
เตอร์	-532
▁ประ	-533
ชม	-534
ระหว่างวันที่	-535
พล	-536
▁จาก	-537
สุ	-538
ในการ	-539
กล้	-540
โทร	-541
ดา	-542
บท	-543
ธรรม	-544
หาคม	-545
คํา	-546
โต	-547
ือก	-548
รูป	-549
▁b	-550
ศึกษา	-551
แล้ว	-552
สมา	-553
ซ์	-554
▁ในประเทศ	-555
ภาค	-556
นวน	-557
ขนาด	-558
าวิ	-559
ูน	-560
อีก	-561
ทรง	-562
ภู	-563
อเมริกา	-564
อัล	-565
เซีย	-566
บน	-567
ําร	-568
▁สิงหาคม	-569
ทะ	-570
▁เช	-571
ธิ	-572
▁p	-573
สาร	-574
วิทย	-575
is	-576
▁เมือง	-577
ชนิด	-578
กรรม	-579
▁ใ	-580
ังกฤษ	-581
อันดับ	-582
ัฒ	-583
ฐาน	-584
▁ๆ	-585
▁เข้	-586
าลัย	-587
ทัศ	-588
ยม	-589
ากร	-590
หรัฐ	-591
▁ในปี	-592
เดียว	-593
แหน	-594
บบ	-595
ั้ม	-596
แหน่ง	-597
บา	-598
ก็	-599
ท์	-600
โรง	-601
บั้ม	-602
อะ	-603
าร่วมแข่งขัน	-604
นี	-605
อังกฤษ	-606
มาณ	-607
ิศ	-608
หญ	-609
กลุ่ม	-610
เมตร	-611
ทัศน์	-612
รถ	-613
ของประเทศ	-614
ตะวันออก	-615
ุมภาพ	-616
ุมภาพันธ์	-617
เพื่อ	-618
หลวง	-619
เข้	-620
ญา	-621
▁ปัจจุบัน	-622
พระราช	-623
จีน	-624
กีฬาโอลิมปิกฤดู	-625
ยะ	-626
้ง	-627
0000	-628
โซ	-629
พบ	-630
ประช	-631
ัท	-632
ี่ยว	-633
▁d	-634
ตําแหน่ง	-635
อฟ	-636
▁กุมภาพันธ์	-637
▁เข้าร่วมแข่งขัน	-638
ละคร	-639
▁)	-640
เธ	-641
ปกครอง	-642
▁a	-643
ชิก	-644
ศักราช	-645
หมด	-646
รวม	-647
ว์	-648
ครั้งแรก	-649
หลัก	-650
ป์	-651
ช่วง	-652
รู้	-653
หญิง	-654
ชนะ	-655
ภาย	-656
ลักษ	-657
วิต	-658
วัล	-659
เส้น	-660
โทรทัศน์	-661
▁เด	-662
แพ	-663
่าว	-664
ล์	-665
เล็ก	-666
ในประเทศ	-667
ร้อง	-668
▁จังหวัด	-669
▁ธ	-670
อุ	-671
ตอน	-672
วด	-673
ซึ่ง	-674
สูง	-675
ทําให้	-676
สง	-677
สามารถ	-678
ใจ	-679
็ม	-680
าวิทย	-681
▁t	-682
ดัง	-683
มาจาก	-684
สร	-685
▁คร	-686
กุล	-687
อาณา	-688
แทน	-689
ดาว	-690
คา	-691
▁f	-692
างวัล	-693
▁เช่น	-694
▁ออก	-695
บาล	-696
ณฑ	-697
ติด	-698
าวิทยาลัย	-699
ธาร	-700
รกฎ	-701
ระดับ	-702
▁(;	-703
รกฎาคม	-704
ro	-705
ั่ง	-706
หมู่	-707
ชิ	-708
▁อาจ	-709
ตะวันตก	-710
่อย	-711
พันธ์	-712
เห	-713
เคียง	-714
บาง	-715
หัว	-716
อื่น	-717
อัลบั้ม	-718
ไม้	-719
ac	-720
มีการ	-721
▁นัก	-722
▁l	-723
รส	-724
▁เจ	-725
ลํา	-726
ทั้งหมด	-727
ใหม	-728
re	-729
ระบบ	-730
บ้าน	-731
นน	-732
ประมาณ	-733
็ด	-734
ิร์	-735
ตั้งแต่	-736
่วย	-737
วา	-738
ผ่าน	-739
ษัท	-740
ยาว	-741
ion	-742
▁เร	-743
▁กรกฎาคม	-744
ตา	-745
ว้	-746
the	-747
หรัฐอเมริกา	-748
สอง	-749
it	-750
เกม	-751
หนึ่งใน	-752
นาม	-753
ปัจจุบัน	-754
ุลาคม	-755
พื้นที่	-756
▁w	-757
ทั่ว	-758
เชีย	-759
▁จัด	-760
ใหม่	-761
ol	-762
ั่น	-763
เครื่อง	-764
แชม	-765
▁สา	-766
▁g	-767
เกาะ	-768
▁ฟ	-769
สมาชิก	-770
ภาษ	-771
เนีย	-772
จิ	-773
ผลง	-774
จํานวน	-775
ผลิต	-776
▁กัน	-777
แต	-778
▁ข	-779
am	-780
ผลงาน	-781
เด็จ	-782
ทธิ	-783
ยายน	-784
เลือก	-785
เขียน	-786
▁ผู้	-787
▁เส	-788
แนว	-789
ชีวิต	-790
มุ	-791
ธารณ	-792
ปฏ	-793
▁และเป็น	-794
▁สถ	-795
แผ	-796
สาย	-797
จน	-798
่อตั้ง	-799
คัญ	-800
.00	-801
▁ครั้ง	-802
▁ตุลาคม	-803
el	-804
รัก	-805
เปล	-806
สัน	-807
as	-808
รถไฟ	-809
รั่ง	-810
ฝรั่ง	-811
▁กล	-812
โค	-813
้อย	-814
สมัย	-815
่น้ํา	-816
รางวัล	-817
▁พุทธ	-818
us	-819
▁เอ	-820
ิ่น	-821
โมสร	-822
▁ฮ	-823
ูด	-824
หา	-825
▁o	-826
แป	-827
ต้อง	-828
ช่อง	-829
เอก	-830
เทพ	-831
▁h	-832
ประชากร	-833
มน	-834
id	-835
กล้เคียง	-836
พันธ	-837
มัน	-838
โลเมตร	-839
ฝรั่งเศ	-840
▁ส่วน	-841
เดือน	-842
▁ตั้งอยู่	-843
ธารณรัฐ	-844
ฝรั่งเศส	-845
▁กันยายน	-846
สห	-847
เริ่ม	-848
ักษร	-849
จิก	-850
▁กร	-851
ากล	-852
▁พุทธศักราช	-853
กรา	-854
▁n	-855
ร่วม	-856
▁ถึง	-857
อาณาจักร	-858
านา	-859
กอง	-860
ร้อนครั้งที่	-861
เลย์	-862
▁เขา	-863
อิ	-864
ทะเล	-865
▁ระหว่างวันที่	-866
▁อาจหมายถึง	-867
▁ได้แก่	-868
เดีย	-869
สถาน	-870
ชุด	-871
เวลา	-872
เนื้อ	-873
ชิง	-874
คริส	-875
เฟ	-876
▁ทาง	-877
ปลา	-878
สําหรับ	-879
แชมป์	-880
ซิ	-881
▁มิ	-882
โรงเรียน	-883
ทอง	-884
เวณ	-885
หน่าย	-886
แค	-887
อต	-888
▁ต่อ	-889
นาคม	-890
เลีย	-891
เป็นที่	-892
เรียก	-893
กล้เคียงกับ	-894
il	-895
ิงเก	-896
เวีย	-897
กรุง	-898
▁เน	-899
ี่ยน	-900
เภท	-901
ศิล	-902
หลังจาก	-903
ภูมิ	-904
โบ	-905
▁เซ	-906
จําหน่าย	-907
ันว	-908
อลเลย์	-909
▁ห	-910
สิ้น	-911
ฤศ	-912
วก	-913
ฤศจิก	-914
ฤศจิกายน	-915
ดีต	-916
ตี	-917
รัส	-918
ดํา	-919
▁เกิดเมื่อวันที่	-920
ประกอบด้วย	-921
อลเลย์บอล	-922
พรรดิ	-923
▁สม	-924
▁เท	-925
รายการ	-926
ันวาคม	-927
ออส	-928
อาจ	-929
▁เริ่ม	-930
▁แห่ง	-931
▁กิ	-932
ฟ้า	-933
ใบ	-934
ตู	-935
โป	-936
▁0,000	-937
ได้รับการ	-938
▁เป็นเมือง	-939
โปร	-940
อรม	-941
วิทยา	-942
▁โดยมี	-943
กราคม	-944
ดนตรี	-945
ภาคม	-946
ชัน	-947
ลักษณะ	-948
อี	-949
ชั้น	-950
็ง	-951
▁อําเภอ	-952
นคร	-953
ก่อน	-954
ดูก	-955
ตรง	-956
อําเภอ	-957
ถือ	-958
รู้จัก	-959
ฤษภาคม	-960
ารา	-961
▁ใกล้เคียงกับ	-962
สถานี	-963
ขา	-964
หลี	-965
▁ซึ่งเป็น	-966
ทิศ	-967
un	-968
ประชา	-969
▁มห	-970
โคร	-971
ae	-972
เตร	-973
แบ่ง	-974
ขน	-975
คุ	-976
▁เพื่อ	-977
าป	-978
ทุก	-979
▁,	-980
ลูก	-981
ี่ยม	-982
▁สํา	-983
▁พฤศจิกายน	-984
▁กรุง	-985
สหรัฐอเมริกา	-986
ี้ย	-987
ษายน	-988
.0	-989
เดิม	-990
le	-991
เยอรม	-992
้ม	-993
ซา	-994
หนึ่งของ	-995
บิน	-996
ัตว์	-997
สกุล	-998
วัด	-999
แม่น้ํา	-1000
ยอด	-1001
ถุน	-1002
สัญ	-1003
เปลี่ยน	-1004
ีย์	-1005
ิป	-1006
เคย	-1007
แดง	-1008
แอน	-1009
บี	-1010
▁แม	-1011
ศรี	-1012
สะ	-1013
ถุนายน	-1014
เช่น	-1015
เง	-1016
om	-1017
การ์	-1018
▁จํา	-1019
เฉียง	-1020
ลาย	-1021
▁รวม	-1022
มีความ	-1023
ิงเกิล	-1024
ยาย	-1025
▁ธันวาคม	-1026
คณะ	-1027
เกี่ยว	-1028
ปฏิ	-1029
ราชอาณาจักร	-1030
เปิด	-1031
โย	-1032
ed	-1033
แยก	-1034
[[	-1035
▁มกราคม	-1036
▁ตํา	-1037
ing	-1038
บุรี	-1039
นิยม	-1040
ลี	-1041
าลี	-1042
แร	-1043
คราม	-1044
อักษร	-1045
บรร	-1046
แต่ง	-1047
เอเชีย	-1048
เด็จพระ	-1049
การปกครอง	-1050
▁ใช้	-1051
ปลาย	-1052
▁พฤษภาคม	-1053
ยุค	-1054
อาหาร	-1055
▁มีนาคม	-1056
เกา	-1057
▁รัฐ	-1058
ุ์	-1059
เธอ	-1060
พัฒ	-1061
ถนน	-1062
วาง	-1063
ชีพ	-1064
ายุ	-1065
ur	-1066
ไซ	-1067
จึง	-1068
พร	-1069
็อ	-1070
ามารถ	-1071
มะ	-1072
กรม	-1073
กาศ	-1074
▁เมษายน	-1075
ch	-1076
▁ตาม	-1077
บริเวณ	-1078
ธี	-1079
็บ	-1080
บริษัท	-1081
นาย	-1082
หนัง	-1083
▁เว	-1084
ให้กับ	-1085
▁ชื่อ	-1086
สัง	-1087
พ์	-1088
ทัพ	-1089
พืช	-1090
ดอก	-1091
จากการ	-1092
เฮ	-1093
บู	-1094
วรรษ	-1095
เซอร์	-1096
ent	-1097
บัติ	-1098
อเมริกัน	-1099
กะ	-1100
▁ตัว	-1101
ข้าง	-1102
มวย	-1103
สโมสร	-1104
▁มิถุนายน	-1105
▁the	-1106
อกจาก	-1107
▁เพลง	-1108
ติก	-1109
พาะ	-1110
อาร์	-1111
เอง	-1112
▁จะ	-1113
ไม่มี	-1114
เกาหลี	-1115
and	-1116
สําคัญ	-1117
ลีก	-1118
▁00,000	-1119
ชก	-1120
ปริ	-1121
▁บริ	-1122
ตัน	-1123
ราชวงศ์	-1124
ราว	-1125
ทางการ	-1126
เพียง	-1127
ไว้	-1128
จุด	-1129
ศิลป	-1130
แผ่น	-1131
ตน	-1132
▁ราย	-1133
พันธุ์	-1134
เสีย	-1135
สู่	-1136
ทร์	-1137
▁คว	-1138
▁จน	-1139
ถิ่น	-1140
พิม	-1141
เฉพาะ	-1142
▁เล	-1143
]]	-1144
-00	-1145
น้อย	-1146
ประจํา	-1147
ที่เป็น	-1148
บดี	-1149
ท้อง	-1150
แดน	-1151
ฉาย	-1152
พรรค	-1153
็อก	-1154
เรือ	-1155
โท	-1156
พี	-1157
ังกัด	-1158
ยาน	-1159
กิจ	-1160
นาง	-1161
ประเภท	-1162
าราง	-1163
โจ	-1164
")	-1165
▁เจ้า	-1166
ทีมชาติ	-1167
▁of	-1168
วิล	-1169
ตั้งอยู่	-1170
เลข	-1171
สัตว์	-1172
▁และมี	-1173
ที่ใช้	-1174
สภา	-1175
ลัง	-1176
ul	-1177
et	-1178
ลิ	-1179
ัพ	-1180
ซิงเกิล	-1181
ส่ง	-1182
▁ตําบล	-1183
ขาย	-1184
พระองค์	-1185
ศูน	-1186
ศูนย์	-1187
ทาน	-1188
ทั่วไป	-1189
สงคราม	-1190
เวอร์	-1191
st	-1192
รอบ	-1193
เบิล	-1194
พิมพ์	-1195
▁เป็นนักแสดง	-1196
บาท	-1197
ท้าย	-1198
รูปแบบ	-1199
ข้อม	-1200
ไอ	-1201
สต์	-1202
แห่งชาติ	-1203
มหาวิทยาลัย	-1204
▁00.00	-1205
▁ก่อน	-1206
ไล	-1207
ามา	-1208
▁นอกจาก	-1209
สิน	-1210
ืน	-1211
นต์	-1212
วีป	-1213
▁r	-1214
เลือกตั้ง	-1215
▁วัน	-1216
ข้อมูล	-1217
อนุ	-1218
าร์ต	-1219
▁มา	-1220
คริสต์	-1221
ระยะ	-1222
▁เส้น	-1223
คอม	-1224
ริง	-1225
ศา	-1226
โรป	-1227
▁จัก	-1228
▁จึง	-1229
กล่าว	-1230
ุษ	-1231
▁k	-1232
▁พระองค์	-1233
ิดา	-1234
ทิน	-1235
▁เค	-1236
นี้เป็น	-1237
0000)	-1238
เป็นผู้	-1239
กุ	-1240
▁สาธารณรัฐ	-1241
พุทธ	-1242
▁j	-1243
ขาว	-1244
อาชีพ	-1245
เรียกว่า	-1246
▁ย	-1247
▁ต่อมา	-1248
▁v	-1249
สนาม	-1250
้าง	-1251
ที่จะ	-1252
คาร	-1253
▁กับ	-1254
แมน	-1255
ทิ	-1256
▁จักร	-1257
em	-1258
มือ	-1259
ษฐ	-1260
ไร	-1261
สิ่ง	-1262
สาว	-1263
ออสเตร	-1264
๊ก	-1265
▁กํา	-1266
ียญ	-1267
▁สามารถ	-1268
คู่	-1269
ชัย	-1270
อิส	-1271
▁กิโลเมตร	-1272
▁ความ	-1273
เชื่อ	-1274
ษฎ	-1275
เร็จ	-1276
หนด	-1277
มุทร	-1278
หนาว	-1279
ตําบล	-1280
ไต	-1281
เงิน	-1282
▁000,000	-1283
หรียญ	-1284
พูด	-1285
ยุโรป	-1286
▁[[	-1287
อดีต	-1288
แหล	-1289
ในวันที่	-1290
รอง	-1291
กัด	-1292
ec	-1293
ัณฑ	-1294
เดิน	-1295
ค้า	-1296
ีบ	-1297
เกล	-1298
สิทธิ	-1299
ก่อตั้ง	-1300
ารี	-1301
าสมุทร	-1302
ทหาร	-1303
เดน	-1304
ตาร์	-1305
เดียน	-1306
สเป	-1307
แซ	-1308
▁พบ	-1309
เนิน	-1310
ซิล	-1311
ํารง	-1312
ปรา	-1313
▁ทรง	-1314
พัฒนา	-1315
แตก	-1316
การศึกษา	-1317
▁หลังจาก	-1318
ig	-1319
ชั่น	-1320
▁ภาษา	-1321
▁ได้รับ	-1322
ต่างๆ	-1323
จาร	-1324
ฝั่ง	-1325
ราษฎ	-1326
▁(,	-1327
ไน	-1328
ย่อย	-1329
ิตาลี	-1330
ณฑล	-1331
อร์ด	-1332
ดิ์	-1333
ออกอากาศ	-1334
วัติ	-1335
มัก	-1336
คล้าย	-1337
ปาก	-1338
อํา	-1339
เหม	-1340
ทํางาน	-1341
ชื่อเสียง	-1342
ูป	-1343
▁สําหรับ	-1344
้อน	-1345
▁เมตร	-1346
iv	-1347
เดียวกัน	-1348
ag	-1349
แสดงโดย	-1350
▁ทีม	-1351
เอ็ม	-1352
▁<	-1353
ad	-1354
หย	-1355
จี	-1356
สมเด็จพระ	-1357
วัฒ	-1358
เกมส์	-1359
็ต	-1360
▁หมู่	-1361
▁อง	-1362
ื่องจาก	-1363
ออกเป็น	-1364
ท่า	-1365
um	-1366
ลําดับ	-1367
ประกาศ	-1368
▁สถานี	-1369
▁เมื่อวันที่	-1370
ลอง	-1371
ว่าเป็น	-1372
br	-1373
ในช่วง	-1374
ราะ	-1375
็อง	-1376
คุณ	-1377
▁ch	-1378
ากับ	-1379
จัน	-1380
เกี่ยวกับ	-1381
ประธ	-1382
-0	-1383
ทั้งสิ้น	-1384
เอส	-1385
os	-1386
ือด	-1387
ากฏ	-1388
าระ	-1389
อายุ	-1390
หน่วย	-1391
▁ตาราง	-1392
▁(00	-1393
ทางทิศ	-1394
จะมี	-1395
▁มหาวิทยาลัย	-1396
หนังส	-1397
บริการ	-1398
บุตร	-1399
ค่า	-1400
ียร์	-1401
แผ่นดิน	-1402
วล	-1403
ร่	-1404
กาย	-1405
ขั้	-1406
ation	-1407
ียบ	-1408
วอลเลย์บอล	-1409
ภายใน	-1410
จริง	-1411
ไท	-1412
ียม	-1413
▁องศา	-1414
บริหาร	-1415
ซู	-1416
วจ	-1417
หนังสือ	-1418
เมื่อปี	-1419
กูล	-1420
ที่สุดใน	-1421
มร	-1422
ัตริ	-1423
",	-1424
ษัตริ	-1425
สุดท้าย	-1426
ประวัติ	-1427
เมริเดียน	-1428
▁นิ	-1429
อินเดีย	-1430
▁สุ	-1431
เห็น	-1432
im	-1433
มนตรี	-1434
เปอร์	-1435
ปิด	-1436
ษัตริย์	-1437
โครง	-1438
แรง	-1439
สากล	-1440
ut	-1441
เซล	-1442
รุ่น	-1443
▁กระ	-1444
กรี	-1445
ภายใต้	-1446
ริก	-1447
แม่	-1448
▁อัล	-1449
หัส	-1450
เข้าร่วม	-1451
ฝ่าย	-1452
ตัด	-1453
▁หมายถึง	-1454
ดํารง	-1455
▁ดัง	-1456
วรรษที่	-1457
สัม	-1458
ia	-1459
ุธ	-1460
คะ	-1461
คิด	-1462
สํานัก	-1463
▁ทําให้	-1464
▁เธ	-1465
ช่วย	-1466
สําเร็จ	-1467
▁ใบ	-1468
▁คํา	-1469
เผ	-1470
แฟ	-1471
เศษ	-1472
ที่สอง	-1473
เหลือง	-1474
ace	-1475
สอน	-1476
ฐานะ	-1477
ื่อน	-1478
กลับ	-1479
▁in	-1480
ชาวอเมริกัน	-1481
ิ่ม	-1482
▁อัน	-1483
ir	-1484
▁ดอก	-1485
ระกูล	-1486
หน้าที่	-1487
ลาด	-1488
าะห์	-1489
ชิงแชมป์	-1490
ี้ยง	-1491
▁นํา	-1492
จักรพรรดิ	-1493
ฤดูก	-1494
ฤดูกาล	-1495
มหาน	-1496
ตะวันออกเฉียง	-1497
ิจ	-1498
ตาล	-1499
ที่ย	-1500
▁อยู่	-1501
ัช	-1502
ay	-1503
พา	-1504
นะ	-1505
ตูน	-1506
เคราะห์	-1507
▁ประเทศญี่ปุ่น	-1508
มาย	-1509
ไข	-1510
▁ยู	-1511
โรค	-1512
สี่	-1513
ียร	-1514
ม่า	-1515
ดนาม	-1516
รุ	-1517
มากกว่า	-1518
ธิบดี	-1519
ิ่ง	-1520
มาร	-1521
ปล้ํา	-1522
อิตาลี	-1523
▁“	-1524
ดังนี้	-1525
▁ก่อตั้ง	-1526
ดับเบิล	-1527
▁st	-1528
▁ตั้งแต่	-1529
▁ผล	-1530
ินี	-1531
เส้นทาง	-1532
ศาสนา	-1533
กลม	-1534
ป่า	-1535
เยอรมนี	-1536
ดอน	-1537
ขนาดเล็ก	-1538
เลือด	-1539
ทวีป	-1540
▁(0000)	-1541
ติน	-1542
จะเป็น	-1543
▁นอกจากนี้	-1544
ต่อไป	-1545
ญญา	-1546
โอรส	-1547
op	-1548
ผสม	-1549
ตล	-1550
▁วิ	-1551
อ่อน	-1552
งาม	-1553
ลิง	-1554
ัป	-1555
ขั้ว	-1556
เมริเดียนที่	-1557
ประชาชน	-1558
ter	-1559
ก่อ	-1560
เหลี่ยม	-1561
ศต	-1562
คคล	-1563
ิติ	-1564
ดับเบิลยู	-1565
จร	-1566
▁สี	-1567
กําลัง	-1568
▁ล้าน	-1569
ข้อ	-1570
ลักษณ์	-1571
รัสเซีย	-1572
วิน	-1573
▁แบ	-1574
ทีวี	-1575
นักแสดง	-1576
▁เป็นต้น	-1577
เวล	-1578
ริน	-1579
บัญ	-1580
แปลง	-1581
ค่าย	-1582
▁รายชื่อ	-1583
ต่อมา	-1584
ณี	-1585
ษ์	-1586
มณฑล	-1587
เบิร์	-1588
สเปน	-1589
▁ด้วย	-1590
▁มีความ	-1591
ล่าง	-1592
้อม	-1593
ชาวไทย	-1594
▁บท	-1595
นาน	-1596
ชื่อว่า	-1597
แต่ละ	-1598
กิโลเมตร	-1599
เคล	-1600
▁จักรพรรดิ	-1601
▁ทั้ง	-1602
ั่ว	-1603
สูงสุด	-1604
▁ไม	-1605
▁พรร	-1606
ผู้แทน	-1607
▁บริษัท	-1608
เลิศ	-1609
เหลือ	-1610
▁e	-1611
ราษฎร	-1612
▁เขต	-1613
ักษ์	-1614
กําหนด	-1615
▁กลุ่ม	-1616
ร้อม	-1617
▁ถ	-1618
ot	-1619
เมน	-1620
าร์ก	-1621
▁ครั้งที่	-1622
เทอร์	-1623
ปรากฏ	-1624
ม์	-1625
ริม	-1626
เวียดนาม	-1627
คง	-1628
โฮ	-1629
ฟิล	-1630
ศัย	-1631
คอน	-1632
เกาหลีใต้	-1633
แข็ง	-1634
จัดการ	-1635
รัช	-1636
ูง	-1637
ท้องถิ่น	-1638
เอล	-1639
พวก	-1640
เหตุ	-1641
ศักดิ์	-1642
วิทยาศาสตร์	-1643
▁ผ	-1644
ขั้วโลก	-1645
ัคร	-1646
โพ	-1647
กํากับ	-1648
วะ	-1649
สังกัด	-1650
▁ศ	-1651
นี้มี	-1652
เต็ม	-1653
ขนาดใหญ่	-1654
รักษา	-1655
กองทัพ	-1656
เบล	-1657
▁เบ	-1658
มหานคร	-1659
อฟริ	-1660
ของเขา	-1661
เดอร์	-1662
ค้น	-1663
ปกติ	-1664
ประวัติศาสตร์	-1665
นิว	-1666
ตระกูล	-1667
ลาว	-1668
คว้น	-1669
ศตวรรษที่	-1670
พู	-1671
ราณ	-1672
ไม่ได้	-1673
เหมือน	-1674
วัย	-1675
ว้าง	-1676
หนัก	-1677
่านั้น	-1678
จาย	-1679
ประเทศไทย	-1680
แอ	-1681
อาศัย	-1682
รณ์	-1683
▁ออกอากาศ	-1684
od	-1685
สิบ	-1686
ประพันธ์	-1687
เพิ่ม	-1688
พม่า	-1689
▁นาย	-1690
เรียง	-1691
รัฐมนตรี	-1692
แถ	-1693
วรรณ	-1694
ผู้แทนราษฎร	-1695
ตรา	-1696
เลี้ยง	-1697
่อม	-1698
สาธารณรัฐ	-1699
พระเจ้า	-1700
ของจังหวัด	-1701
ทรวง	-1702
ประกวด	-1703
▁สาย	-1704
ในประเทศไทย	-1705
เหรียญ	-1706
เดี่ยว	-1707
aceae	-1708
การ์ตูน	-1709
บุคคล	-1710
ิริ	-1711
หนาวครั้งที่	-1712
คต	-1713
พิเศษ	-1714
▁เรื่อง	-1715
แจ	-1716
แรกของ	-1717
ุษย์	-1718
ap	-1719
่างจาก	-1720
สภาผู้แทนราษฎร	-1721
บับ	-1722
▁เธอ	-1723
เกียว	-1724
โบราณ	-1725
เยอรมัน	-1726
ุ่ง	-1727
สั้น	-1728
อร์แลนด์	-1729
ดํารงตําแหน่ง	-1730
บวน	-1731
ซะ	-1732
รายชื่อ	-1733
นก	-1734
อินโด	-1735
ใด	-1736
ีโอ	-1737
▁0.0	-1738
ราชย์	-1739
อฟริกา	-1740
สบ	-1741
เทค	-1742
▁ก็	-1743
ริญ	-1744
กรรมการ	-1745
เขียว	-1746
แสง	-1747
ื้น	-1748
▁กํากับ	-1749
เป็นที่รู้จัก	-1750
จนถึง	-1751
ออสเตรเลีย	-1752
▁จํากัด	-1753
โอลิมปิกฤดูร้อน	-1754
สิง	-1755
บรา	-1756
หมายเลข	-1757
ฟา	-1758
สโมสรฟุตบอล	-1759
▁ซี	-1760
เบียน	-1761
แหล่ง	-1762
oc	-1763
ow	-1764
ip	-1765
มหา	-1766
ชนะเลิศ	-1767
อยู่ที่	-1768
ang	-1769
นาจ	-1770
องค์กร	-1771
ดําเนิน	-1772
สิก	-1773
ัธ	-1774
โช	-1775
แพร่	-1776
ส่วนหนึ่งของ	-1777
ผิด	-1778
▁สห	-1779
ของรัฐ	-1780
▁;	-1781
▁แพ	-1782
ร้อย	-1783
ุรก	-1784
เสน	-1785
็อป	-1786
สถาป	-1787
ฉบับ	-1788
ที่สํา	-1789
▁และได้	-1790
เบอร์	-1791
ส่วนใหญ่	-1792
พย	-1793
หิน	-1794
▁บาง	-1795
พระชน	-1796
เบีย	-1797
สิทธิ์	-1798
ได้แก่	-1799
▁(0	-1800
▁เป็นผู้	-1801
คุม	-1802
ดวง	-1803
ขณะ	-1804
การเมือง	-1805
ไฮ	-1806
็อค	-1807
แกรม	-1808
กรณ์	-1809
ขึ้นที่	-1810
ืบ	-1811
ชนิดหนึ่ง	-1812
จา	-1813
ชาร์ต	-1814
ิตย์	-1815
นีเซีย	-1816
▁ชาว	-1817
แตกต่าง	-1818
▁ประกอบด้วย	-1819
ได	-1820
▁ลํา	-1821
อากาศยาน	-1822
▁เวลา	-1823
จบ	-1824
ัตถ	-1825
เก่า	-1826
นว	-1827
ได้รับรางวัล	-1828
นติ	-1829
ดก	-1830
ติดต่อ	-1831
▁เป็นเพลง	-1832
เนิด	-1833
ทา	-1834
▁โร	-1835
เดอะ	-1836
ยังมี	-1837
ครอบ	-1838
นอร์	-1839
พาน	-1840
▁เกา	-1841
นธรรม	-1842
นานา	-1843
ที่ใหญ่	-1844
เทพมหานคร	-1845
โกะ	-1846
เชิง	-1847
ู้น	-1848
▁เคร	-1849
ธรรมชาติ	-1850
บรม	-1851
ปฏิบัติ	-1852
ภาพยนตร์เรื่อง	-1853
จอม	-1854
ศึกษ	-1855
เอฟ	-1856
ถ่าย	-1857
▁and	-1858
เป็นเมือง	-1859
▁เนื่องจาก	-1860
ก์	-1861
เติ	-1862
ฟอร์	-1863
▁เป็นการ	-1864
อื่นๆ	-1865
าบัน	-1866
เชื่อม	-1867
ภาษาอังกฤษ	-1868
สหราชอาณาจักร	-1869
ab	-1870
▁ด้าน	-1871
ศิลปิน	-1872
อํานาจ	-1873
ภูมิภาค	-1874
องค์การ	-1875
▁เป็นการแข่งขัน	-1876
ที่สําคัญ	-1877
est	-1878
าวะ	-1879
นาดา	-1880
ist	-1881
รีส์	-1882
สถานที่	-1883
▁ตารางกิโลเมตร	-1884
ยาม	-1885
ัธยม	-1886
ัตร	-1887
กลาย	-1888
แอล	-1889
ธง	-1890
ทางตอน	-1891
วัง	-1892
เขตการปกครอง	-1893
),	-1894
ใส	-1895
▁:	-1896
ังก์	-1897
วย์	-1898
▁y	-1899
วิด	-1900
เร็	-1901
วิทยุ	-1902
ใช้เป็น	-1903
ทู	-1904
สมาคม	-1905
ว่	-1906
เด็ก	-1907
ุรกิจ	-1908
สาน	-1909
เชียง	-1910
กําเนิด	-1911
ได้เป็น	-1912
ย่อ	-1913
ข้าว	-1914
▁อิน	-1915
ทิตย์	-1916
จันทร์	-1917
ov	-1918
ทึก	-1919
ใกล้	-1920
ปา	-1921
น้ําตาล	-1922
บัง	-1923
▁อี	-1924
ในชื่อ	-1925
สังคม	-1926
มนุษย์	-1927
แอฟริกา	-1928
มหาสมุทร	-1929
ธา	-1930
เด่น	-1931
ุย	-1932
ธิดา	-1933
▁คณะ	-1934
if	-1935
▁วัด	-1936
เป็นอันดับ	-1937
ลอน	-1938
ศูนย์กลาง	-1939
▁การแข่งขัน	-1940
ers	-1941
ริย	-1942
เยี่ยม	-1943
all	-1944
บัล	-1945
▁คริ	-1946
ครองราชย์	-1947
ผลิตโดย	-1948
นานาชาติ	-1949
นติเมตร	-1950
art	-1951
เกษ	-1952
แนน	-1953
ให้เป็น	-1954
▁วันที่	-1955
บาย	-1956
สาท	-1957
อุด	-1958
ข้าม	-1959
ินส์	-1960
มวยปล้ํา	-1961
ตะวันตกเฉียง	-1962
ทรั	-1963
▁กี	-1964
ที่รู้จัก	-1965
รษฐ	-1966
สู้	-1967
▁อุ	-1968
ภัณฑ	-1969
ิช	-1970
ียรติ	-1971
ใต้ของ	-1972
▁วอลเลย์บอล	-1973
ทําการ	-1974
▁("	-1975
▁เคย	-1976
ให้บริการ	-1977
ห์น	-1978
เที่ย	-1979
ปลว่า	-1980
ละครโทรทัศน์	-1981
▁สหรัฐอเมริกา	-1982
้วย	-1983
น้อง	-1984
เสียชีวิต	-1985
พฤ	-1986
มอน	-1987
คลุม	-1988
วัฒนธรรม	-1989
เร็ว	-1990
เป็นทางการ	-1991
แคว้น	-1992
ลาก	-1993
up	-1994
ุส	-1995
คอ	-1996
มอ	-1997
ใต้ดิน	-1998
เวย์	-1999
เชียน	-2000
ธุรกิจ	-2001
คู	-2002
ํารวจ	-2003
จิต	-2004
วิร์	-2005
ทย์	-2006
พี่	-2007
ไว	-2008
กระดูก	-2009
นักร้อง	-2010
▁นําแสดงโดย	-2011
สวรร	-2012
▁ถูก	-2013
นั่ง	-2014
ยังเป็น	-2015
ับสน	-2016
▁เซนติเมตร	-2017
านาธิบดี	-2018
นิก	-2019
สาห	-2020
▁อะ	-2021
▁ไม่	-2022
เทศบาล	-2023
การแสดง	-2024
▁อยู่ใน	-2025
ซาน	-2026
▁แล้ว	-2027
วิลด์	-2028
จับ	-2029
▁เข้า	-2030
ทั่วโลก	-2031
ทศ	-2032
สูตร	-2033
ออกจาก	-2034
แฮ	-2035
เทน	-2036
ภัณฑ์	-2037
▁น้ํา	-2038
ที่ตั้ง	-2039
กิ่ง	-2040
ดิโอ	-2041
▁อดีต	-2042
เลเซีย	-2043
เพศ	-2044
มัธยม	-2045
ควบ	-2046
หนา	-2047
กว้าง	-2048
เจริญ	-2049
การเลือกตั้ง	-2050
ยี	-2051
ู้นํา	-2052
อาทิตย์	-2053
▁หม	-2054
สีขาว	-2055
ดร	-2056
เกอร์	-2057
มรดก	-2058
▁เป็นนักฟุตบอล	-2059
โฟ	-2060
คัด	-2061
โตะ	-2062
เสนอ	-2063
แคนาดา	-2064
ดังกล่าว	-2065
▁มีประชากร	-2066
เรียบ	-2067
▁อย่าง	-2068
▁เกิดวันที่	-2069
ชร	-2070
ภัย	-2071
สืบ	-2072
ัพท์	-2073
เดียวกับ	-2074
เล่นให้กับ	-2075
หุ	-2076
ลิน	-2077
้าว	-2078
บราซิล	-2079
▁จํานวน	-2080
▁พระเจ้า	-2081
av	-2082
มิน	-2083
ทางหลวง	-2084
▁เป็นภาพยนตร์	-2085
ไบ	-2086
เฉล	-2087
▁ดังนี้	-2088
อินโดนีเซีย	-2089
รัม	-2090
คําว่า	-2091
อว	-2092
ัค	-2093
ปฏิทิน	-2094
ซุ	-2095
ไหล	-2096
ak	-2097
กฎ	-2098
ปัญ	-2099
พย์	-2100
▁บุ	-2101
▁for	-2102
อุป	-2103
▁เดิม	-2104
กระจาย	-2105
▁โรงเรียน	-2106
ภิ	-2107
▁สโมสร	-2108
ที่อยู่	-2109
▁อีก	-2110
ุตสาห	-2111
ตัวละคร	-2112
ร่าง	-2113
▁สร้าง	-2114
เท่านั้น	-2115
รบ	-2116
▁กอง	-2117
โตเกียว	-2118
ซีรีส์	-2119
▁ชนิด	-2120
ราบ	-2121
เกิน	-2122
นี้จะ	-2123
▁เปิด	-2124
ธิป	-2125
นอง	-2126
วร์	-2127
วรรดิ	-2128
เอา	-2129
▁หมู่บ้าน	-2130
เรน	-2131
ศัพท์	-2132
ตรงกับ	-2133
ย้าย	-2134
สัญญา	-2135
ต่อไปนี้	-2136
เหนือของ	-2137
▁/	-2138
เกียรติ	-2139
้อ	-2140
▁มัก	-2141
▁ตั้งอยู่ที่	-2142
▁แก	-2143
ไปยัง	-2144
ในจังหวัด	-2145
ect	-2146
ในวงศ์	-2147
ช์	-2148
ข่าว	-2149
ิตย	-2150
▁ทํา	-2151
และการ	-2152
ออ	-2153
มอง	-2154
อาว	-2155
แถบ	-2156
▁เฮ	-2157
เอ็น	-2158
เด็จพระราช	-2159
ชุม	-2160
นอก	-2161
▁นา	-2162
ป้อง	-2163
▁อําเภ	-2164
งะ	-2165
ออกแบบ	-2166
โซเวีย	-2167
เที่ยว	-2168
–00	-2169
▁โซ	-2170
เวิร์	-2171
▁ที่มี	-2172
เจน	-2173
▁โอ	-2174
เดินทาง	-2175
ไก	-2176
ภาวะ	-2177
ชอบ	-2178
สุข	-2179
ปริญญา	-2180
จง	-2181
คาร์	-2182
พง	-2183
กิน	-2184
ออกมา	-2185
การจัด	-2186
ยนต์	-2187
ยุทธ	-2188
นํามา	-2189
พระชนม์	-2190
ืด	-2191
สุร	-2192
ิปต์	-2193
ดินแดน	-2194
ตลอด	-2195
เครือ	-2196
ine	-2197
สูติ	-2198
เจอร์	-2199
รัฐบาล	-2200
หนอง	-2201
▁ในช่วง	-2202
ในปัจจุบัน	-2203
สเต	-2204
อห์น	-2205
▁สมา	-2206
ิกส์	-2207
เซลล์	-2208
▁เดอะ	-2209
▁i	-2210
สวน	-2211
▁ชนะ	-2212
เศรษฐ	-2213
สเตอร์	-2214
▁re	-2215
ประสบ	-2216
▁พรรค	-2217
ไปด้วย	-2218
▁ซึ่งมี	-2219
คลอง	-2220
บาร์	-2221
พิว	-2222
มรดกโลก	-2223
บันทึก	-2224
ลอนดอน	-2225
we	-2226
▁ภาษ	-2227
▁สนาม	-2228
วิก	-2229
สด	-2230
ปาป	-2231
โซเวียต	-2232
ิปป	-2233
ทั่ง	-2234
หลอด	-2235
ราชการ	-2236
ard	-2237
กาล	-2238
่วนต	-2239
ก่อสร้าง	-2240
ct	-2241
วิชา	-2242
เกล้า	-2243
▁เครื่อง	-2244
อิง	-2245
โรมัน	-2246
ce	-2247
▁กีฬ	-2248
▁แข	-2249
▁แบ่ง	-2250
ทะเบียน	-2251
พิวเตอร์	-2252
ธิการ	-2253
ระยะทาง	-2254
▁ช่อง	-2255
กระทรวง	-2256
ที่ได้	-2257
สมบัติ	-2258
ียิปต์	-2259
ใช้ใน	-2260
ออน	-2261
ช่อ	-2262
ประทาน	-2263
▁ตอน	-2264
ของการ	-2265
มากมาย	-2266
จน์	-2267
ไปทาง	-2268
▁ระหว่าง	-2269
▁สังกัด	-2270
▁สามารถหมายถึง	-2271
นายก	-2272
ประธานาธิบดี	-2273
บวนการ	-2274
▁เป็นพืช	-2275
เท่	-2276
▁ro	-2277
ุตสาหกรรม	-2278
อย่างเป็นทางการ	-2279
ph	-2280
ึด	-2281
มง	-2282
พัน	-2283
ของวง	-2284
ด้วยกัน	-2285
▁th	-2286
ถือเป็น	-2287
ou	-2288
ลู	-2289
นับ	-2290
ับสนุน	-2291
มวยสากล	-2292
ความสําเร็จ	-2293
มวล	-2294
านุ	-2295
ธานี	-2296
ที่มีความ	-2297
วิธี	-2298
▁จนถึง	-2299
นัด	-2300
โคล	-2301
โปแลนด์	-2302
ออฟ	-2303
สมุ	-2304
ว่าง	-2305
เคมี	-2306
▁เกิดเมื่อ	-2307
พาก	-2308
สหภาพ	-2309
▁มีการ	-2310
ด็จ	-2311
ฟิก	-2312
ill	-2313
วาล	-2314
หาย	-2315
สื่อ	-2316
นม	-2317
รัง	-2318
สรร	-2319
พลัง	-2320
จักรวรรดิ	-2321
บอก	-2322
▁รถ	-2323
บทบาท	-2324
▁เป็นไม้	-2325
ครั้งแรกใน	-2326
ผู้นํา	-2327
ิปปินส์	-2328
พร้อม	-2329
ไฟฟ้า	-2330
อาการ	-2331
อียิปต์	-2332
คี	-2333
นู	-2334
▁ประจํา	-2335
▁ประเภท	-2336
พิธี	-2337
อันดับที่	-2338
▁เป็นซิงเกิล	-2339
กง	-2340
สถานีรถไฟ	-2341
ประธาน	-2342
▁เพราะ	-2343
อาณาเขต	-2344
จู	-2345
▁พระราช	-2346
้าม	-2347
เน็ต	-2348
เยาว	-2349
โรห์	-2350
▁0000-	-2351
สหรัฐ	-2352
พระพุทธ	-2353
▁0-0	-2354
คอมพิวเตอร์	-2355
▁เป็นหนึ่งใน	-2356
ผิว	-2357
แก้	-2358
ต่ํา	-2359
กลายเป็น	-2360
มากที่สุด	-2361
ยอดเยี่ยม	-2362
▁สมเด็จพระ	-2363
แห	-2364
ธาตุ	-2365
จิน	-2366
เกต	-2367
▁โค	-2368
▁รูป	-2369
▁อัลบั้ม	-2370
▁ให้	-2371
ตนเอง	-2372
เซ็น	-2373
แน่น	-2374
ควบคุม	-2375
สล	-2376
มาตร	-2377
ชกาล	-2378
ิตยสาร	-2379
ใช้งาน	-2380
ดูแล	-2381
คัพ	-2382
ตูดิโอ	-2383
▁รวมถึง	-2384
qu	-2385
บุญ	-2386
idae	-2387
ตลาด	-2388
ที่ได้รับ	-2389
สาบ	-2390
ห้า	-2391
เข้ามา	-2392
sh	-2393
ud	-2394
ทับ	-2395
เกรก	-2396
็กซิ	-2397
วร	-2398
ขับ	-2399
ส่วนต	-2400
เป็นการ	-2401
เธอร์แลนด์	-2402
ล่า	-2403
og	-2404
ใช	-2405
ตาย	-2406
มหาก	-2407
▁อาร์	-2408
แย	-2409
สมรส	-2410
สมุทร	-2411
าลา	-2412
ปรับ	-2413
▁วงศ์	-2414
บาทสมเด็จพระ	-2415
็ค	-2416
มาน	-2417
▁ทะ	-2418
ศิลปะ	-2419
จัย	-2420
เซน	-2421
โนโล	-2422
▁แพ้	-2423
ที่ไม่	-2424
ราม	-2425
ข้อง	-2426
อาหรับ	-2427
ียด	-2428
เมล	-2429
▁ติด	-2430
เกรกอ	-2431
▁มหาสมุทร	-2432
ฝึก	-2433
รัชกาล	-2434
▁เนื้อ	-2435
ติดต่อกับ	-2436
ชาวญี่ปุ่น	-2437
เวท	-2438
▁สมัย	-2439
ห่างจาก	-2440
รหัส	-2441
เทิง	-2442
เป็นพระ	-2443
▁เรีย	-2444
ld	-2445
หาง	-2446
▁ตั้งอยู่ใน	-2447
โนะ	-2448
ลอ	-2449
▁โปร	-2450
ian	-2451
ร็อก	-2452
็กซิโก	-2453
▁สถิติ	-2454
มอบ	-2455
ิ้น	-2456
ดารา	-2457
ัวร์	-2458
เก็บ	-2459
สีเหลือง	-2460
เข้าแข่งขัน	-2461
ธิปไต	-2462
ลึก	-2463
็กซ์	-2464
▁เดือน	-2465
ภายหลัง	-2466
ub	-2467
ี่ยง	-2468
▁ปลา	-2469
ยศ	-2470
▁มีชื่อ	-2471
▁ออกจําหน่าย	-2472
▁เกาะ	-2473
▁ขณะ	-2474
สันตะ	-2475
เลอร์	-2476
กระทั่ง	-2477
ดาวเคราะห์	-2478
ชู	-2479
ภูเขา	-2480
ที่มีชื่อเสียง	-2481
มิส	-2482
▁ดี	-2483
ัตถุ	-2484
ื้อง	-2485
ปร่าง	-2486
สมัคร	-2487
สถาบัน	-2488
ธิปไตย	-2489
เคลื่อน	-2490
ขึ้นเป็น	-2491
อยู	-2492
โนโลยี	-2493
▁ยัง	-2494
สันตะปาป	-2495
วิส	-2496
แอต	-2497
ท่อง	-2498
สนับสนุน	-2499
เนส	-2500
▁อิ	-2501
▁ไป	-2502
ดาห์	-2503
ครัว	-2504
สาขา	-2505
ื้อส	-2506
แก้ว	-2507
มาเลเซีย	-2508
เกรกอเรียน	-2509
▁นาง	-2510
▁ท้อง	-2511
บางส่วน	-2512
สุรทิน	-2513
ในระดับ	-2514
แพ้	-2515
▁ถนน	-2516
กษัตริย์	-2517
ฟิลิปปินส์	-2518
อุตสาหกรรม	-2519
ธ์	-2520
ปัก	-2521
กรีซ	-2522
โปร์	-2523
อาคาร	-2524
เริ่มต้น	-2525
สัญลักษณ์	-2526
แด	-2527
ซิต	-2528
▁โม	-2529
เว็บ	-2530
แพทย์	-2531
วิทยาลัย	-2532
▁กม	-2533
▁บน	-2534
▁ปีก่อน	-2535
หัวใจ	-2536
พยา	-2537
คนที่	-2538
▁มีผู้	-2539
ลิส	-2540
อําเภ	-2541
ฤษฎ	-2542
วาด	-2543
ินา	-2544
เหย	-2545
ป้องกัน	-2546
อีกด้วย	-2547
สํานักงาน	-2548
ขุน	-2549
องค์ที่	-2550
สต	-2551
รีเม	-2552
วิดีโอ	-2553
เนเธอร์แลนด์	-2554
คริสต์ศตวรรษที่	-2555
ค้นพบ	-2556
เปิดตัว	-2557
พ่อ	-2558
หมวด	-2559
เอเชียน	-2560
▁ภาพยนตร์	-2561
ik	-2562
igh	-2563
มุม	-2564
▁วง	-2565
วบ	-2566
ซอฟ	-2567
นําไป	-2568
มารดา	-2569
ต้องการ	-2570
▁เมื่อปี	-2571
▁มีลักษณะ	-2572
▁แอน	-2573
▁00-00	-2574
ตั้งแต่ปี	-2575
อู	-2576
ายัง	-2577
าร์ด	-2578
เป็นนัก	-2579
ิร์น	-2580
คณ	-2581
ฮี	-2582
ant	-2583
เลน	-2584
เกี่ยวข้อง	-2585
ัมพู	-2586
ในเขต	-2587
ทั้งสอง	-2588
▁ตรงกับ	-2589
การชก	-2590
จํานวนมาก	-2591
▁ในประเทศไทย	-2592
้วน	-2593
ที่จัด	-2594
ทอด	-2595
อป	-2596
มิวน	-2597
▁อักษร	-2598
แคล	-2599
แปซิ	-2600
ขึ้นมา	-2601
มหากษัตริย์	-2602
ong	-2603
คโปร์	-2604
มาร์ก	-2605
เชื้อ	-2606
บันเทิง	-2607
งค์	-2608
ราก	-2609
▁พิ	-2610
แวร์	-2611
เป็นสมาชิก	-2612
สก	-2613
หะ	-2614
อร์ก	-2615
ประโย	-2616
ัปดาห์	-2617
เล่นใน	-2618
▁อําเภอเมือง	-2619
และมี	-2620
▁แต	-2621
ie	-2622
ผ้า	-2623
มิว	-2624
เท่า	-2625
▁นับ	-2626
ออสเตรีย	-2627
เปลี่ยนแปลง	-2628
สึ	-2629
คติ	-2630
จิตร	-2631
ต่อสู้	-2632
อัต	-2633
ระเบ	-2634
▁พล	-2635
ทยาน	-2636
ปรุง	-2637
ประตู	-2638
ที่ถูก	-2639
เวิลด์	-2640
อีกครั้ง	-2641
▁เป็นชื่อ	-2642
อาร	-2643
บูรณ์	-2644
เยาวชน	-2645
▁ผลงาน	-2646
โครงการ	-2647
คัดเลือก	-2648
▁เป็นพระ	-2649
ess	-2650
ขยาย	-2651
เต็ด	-2652
เม็กซิโก	-2653
าบ	-2654
ปะ	-2655
เมอร์	-2656
โปรแกรม	-2657
▁ผลิตโดย	-2658
ive	-2659
ทัน	-2660
ห้อง	-2661
สีมา	-2662
ัมพูชา	-2663
ครั้งนี้	-2664
ฟี	-2665
าด	-2666
ชาวอังกฤษ	-2667
พอ	-2668
่ํา	-2669
แปซิฟิก	-2670
เทคโนโลยี	-2671
ฟ์	-2672
เพชร	-2673
วีเดน	-2674
กฎหมาย	-2675
ทศวรรษ	-2676
หมู่เกาะ	-2677
ตะวันออกเฉียงใต้	-2678
บะ	-2679
ไข่	-2680
▁คําว่า	-2681
ทธิ์	-2682
เกร	-2683
ในการแข่งขัน	-2684
▁x	-2685
พิษ	-2686
วาย	-2687
▁al	-2688
โดยสาร	-2689
ชีส์	-2690
คะแนน	-2691
ักษณะ	-2692
ลําตัว	-2693
▁จากนั้น	-2694
▁ภ	-2695
คับ	-2696
▁จบ	-2697
▁เทศ	-2698
พีเดีย	-2699
ท่องเที่ยว	-2700
ตัวแทน	-2701
ทรัพย์	-2702
ิพีเดีย	-2703
เนื้อที่	-2704
▁สหราชอาณาจักร	-2705
▁ar	-2706
▁บ้าน	-2707
เนื่อง	-2708
ยอม	-2709
ไหว	-2710
▁แปลว่า	-2711
ิกา	-2712
การศึกษ	-2713
ยุก	-2714
ปีชีส์	-2715
ra	-2716
คดี	-2717
อล์	-2718
อุดม	-2719
พระนาม	-2720
ชายฝั่ง	-2721
ซึ่งเป็น	-2722
ทน	-2723
▁ไทย	-2724
เปียน	-2725
▁ที่เมือง	-2726
อนา	-2727
่านี้	-2728
.)	-2729
แผน	-2730
ร่วมกับ	-2731
เหตุการณ์	-2732
ell	-2733
ity	-2734
ซัน	-2735
สีแดง	-2736
แกน	-2737
▁ดู	-2738
รีเมียร์	-2739
สถานีโทรทัศน์	-2740
้าร	-2741
▁00.0	-2742
าระดับ	-2743
สีเขียว	-2744
คณะกรรมการ	-2745
เคิล	-2746
ลําดับที่	-2747
บิ	-2748
▁—	-2749
ยกรรม	-2750
การบิน	-2751
▁รางวัล	-2752
ร้าย	-2753
▁0000]]	-2754
เซอร์แลนด์	-2755
ท่าอากาศยาน	-2756
▁สถิติการชก	-2757
ทด	-2758
ไนเต็ด	-2759
คิว	-2760
มส์	-2761
็อน	-2762
พระราชโอรส	-2763
▁=	-2764
ซิน	-2765
ศาล	-2766
โอะ	-2767
ยิ่ง	-2768
ขั้วโลกเหนือ	-2769
ดะ	-2770
ลม	-2771
หลาก	-2772
ิยาย	-2773
ในฐานะ	-2774
สงครามโลก	-2775
ชิ้น	-2776
นิตยสาร	-2777
สตูดิโอ	-2778
ขั้วโลกใต้	-2779
แอตแล	-2780
ฆษ	-2781
▁ระบบ	-2782
ใส่	-2783
เป็นวัน	-2784
▁รวมทั้ง	-2785
▁องศาตะวันออก	-2786
มี่	-2787
คนแรก	-2788
▁ในวันที่	-2789
ปิ	-2790
มิตร	-2791
วงกลม	-2792
แปล	-2793
เมนต์	-2794
ของผู้	-2795
ชล	-2796
ชัด	-2797
▁รอบ	-2798
▁เปล	-2799
ก็ได้	-2800
เนอร์	-2801
นี้ได้	-2802
ในเมือง	-2803
อร	-2804
▁.	-2805
ทัล	-2806
ร์ก	-2807
วัส	-2808
แขวง	-2809
น็อค	-2810
เหล็ก	-2811
ติดกับ	-2812
ทางด้าน	-2813
ดิว	-2814
▁หน	-2815
คลื่น	-2816
เข้าสู่	-2817
▁คริสต์	-2818
ยาง	-2819
▁งาน	-2820
เวียน	-2821
เข้าไป	-2822
▁เหรียญ	-2823
เส้นเมริเดียนที่	-2824
ทุกวัน	-2825
▁แม่น้ํา	-2826
ของพระ	-2827
เถ	-2828
ชน์	-2829
พยาบาล	-2830
สิ้นสุด	-2831
ข้างเคียง	-2832
เป็นหนึ่งใน	-2833
อาณาเขตติดต่อกับ	-2834
ลด	-2835
end	-2836
โตร	-2837
▁sh	-2838
▁de	-2839
▁โจ	-2840
ริยา	-2841
เสาร์	-2842
ที่อยู่ใน	-2843
รีเมียร์ลีก	-2844
one	-2845
ถาน	-2846
เปร	-2847
▁ไอ	-2848
คณิต	-2849
ของชาว	-2850
ว่าการ	-2851
▁ในการ	-2852
เรื่องราว	-2853
วิตเซอร์แลนด์	-2854
:00	-2855
พิธ	-2856
ฟิน	-2857
ครึ่ง	-2858
ภาษาไทย	-2859
▁คุ	-2860
มาร์	-2861
ขึ้นในปี	-2862
ที่เมือง	-2863
จากขั้วโลกเหนือ	-2864
ast	-2865
เกส	-2866
ซ้าย	-2867
าศัย	-2868
รูปร่าง	-2869
▁ลักษณะ	-2870
สันตะปาปา	-2871
ส่วนท้องถิ่น	-2872
ครู	-2873
บิดา	-2874
▁กรม	-2875
พิจาร	-2876
ฮิ	-2877
ตะวันตกของ	-2878
ฟร	-2879
ขอบ	-2880
ทุน	-2881
มัธยมศึกษา	-2882
▁0)	-2883
▁แจ	-2884
ทัพบ	-2885
นีย์	-2886
แหลม	-2887
เพราะ	-2888
นส์	-2889
▁ของปี	-2890
สู่ขั้วโลกใต้	-2891
ต้าน	-2892
▁ร่วม	-2893
ทํานอง	-2894
ในสมัย	-2895
เป็นเจ้า	-2896
▁สโมสรฟุตบอล	-2897
เทียบ	-2898
▁เขียน	-2899
พระราชทาน	-2900
.0000	-2901
สวีเดน	-2902
เศรษฐกิจ	-2903
▁ท้องที่	-2904
อยู่กับ	-2905
การแสดงโดย	-2906
ทรี	-2907
▁หล	-2908
▁หน้า	-2909
ประสบความสําเร็จ	-2910
หาก	-2911
ทราย	-2912
ฤทธิ์	-2913
▁และยัง	-2914
เดนมาร์ก	-2915
อัง	-2916
เผย	-2917
ไซต์	-2918
หัวหน้า	-2919
▁และการ	-2920
วัตถุ	-2921
▁สาขา	-2922
ัตยกรรม	-2923
▁ตามปฏิทิน	-2924
ม่วง	-2925
เข้ม	-2926
▁ฟุตบอล	-2927
สีน้ําตาล	-2928
▁to	-2929
เยียม	-2930
เบิร์ก	-2931
ทางช่อง	-2932
▁โดยเฉพาะ	-2933
ณห	-2934
ัฟ	-2935
ี้ยว	-2936
▁มีพื้นที่	-2937
ก๊ก	-2938
ตัดสิน	-2939
เนื่องจาก	-2940
▁เป็นนักร้อง	-2941
eg	-2942
หก	-2943
ตุเกส	-2944
โระ	-2945
▁จี	-2946
สัมพันธ์	-2947
▁นักแสดง	-2948
▁แผ	-2949
อิทธิ	-2950
ex	-2951
กู	-2952
ทัพบก	-2953
▁ภายใต้	-2954
ber	-2955
สระ	-2956
ตกาล	-2957
ใหญ่ของ	-2958
ฮา	-2959
การี	-2960
▁0.00	-2961
อธ	-2962
โดด	-2963
โอก	-2964
ที่พบ	-2965
หลากหลาย	-2966
มีประชากร	-2967
ไช	-2968
เสด็จ	-2969
▁ได้รับการ	-2970
ทัย	-2971
สงค์	-2972
หมวดหมู่	-2973
วางจําหน่าย	-2974
องค์กรปกครอง	-2975
ขึ้นโดย	-2976
ซิส	-2977
ริช	-2978
อ้าง	-2979
รับบท	-2980
เกษตร	-2981
นอร์เวย์	-2982
อินเทอร์	-2983
เดล	-2984
ฮ่อง	-2985
ประชุม	-2986
คริสตกาล	-2987
เบลเยียม	-2988
สวิตเซอร์แลนด์	-2989
กติ	-2990
สอบ	-2991
โฆษ	-2992
▁เป	-2993
ในเดือน	-2994
▁เป็นอําเภอ	-2995
ซอล	-2996
▁มาจาก	-2997
ร่างกาย	-2998
▁ดิ	-2999
ในวง	-3000
▁รอง	-3001
▁ทวีป	-3002
เหรียญทอง	-3003
แตกต่างกัน	-3004
ah	-3005
และเป็น	-3006
นายกรัฐมนตรี	-3007
ไกล	-3008
รัตน	-3009
ิสถาน	-3010
▁มีผลงาน	-3011
รับประทาน	-3012
เมืองหลวง	-3013
ปฏิบัติการ	-3014
oh	-3015
▁ลูก	-3016
พัก	-3017
▁มัน	-3018
วยงาม	-3019
มาเป็น	-3020
ในรูปแบบ	-3021
ขว	-3022
กษ์	-3023
แต่งเพลง	-3024
▁โดยเป็น	-3025
หลอดเลือด	-3026
ประชาธิปไตย	-3027
▁เป็นเมืองหลวง	-3028
จูด	-3029
อัส	-3030
สินค้า	-3031
สิงคโปร์	-3032
ตําแหน่งกอง	-3033
คืน	-3034
▁บี	-3035
สั่ง	-3036
▁ชุด	-3037
▁พบใน	-3038
จด	-3039
ain	-3040
แอร์	-3041
▁com	-3042
▁กลีบ	-3043
▁สมาชิก	-3044
อัลบั้มชุด	-3045
▁ฉ	-3046
ich	-3047
รัต	-3048
ลาม	-3049
สภาพ	-3050
▁แนว	-3051
จักรวาล	-3052
แห่งนี้	-3053
▁เป็นกลุ่ม	-3054
ขึ้นเมื่อวันที่	-3055
ิญ	-3056
ุฒ	-3057
ass	-3058
ช้าง	-3059
ทุ่ง	-3060
ฤษฎี	-3061
ออกไป	-3062
▁หลัง	-3063
ตรวจ	-3064
พากย์	-3065
ด้วยการ	-3066
อิทธิพล	-3067
▁บริเวณ	-3068
กรุงเทพมหานคร	-3069
การค้า	-3070
▁ภาค	-3071
▁0000,	-3072
cl	-3073
นวย	-3074
านี้	-3075
อยู่หัว	-3076
มีลักษณะ	-3077
าราช	-3078
เลียน	-3079
เพื่อน	-3080
เท่ากับ	-3081
โปรตุเกส	-3082
เครื่องบิน	-3083
รกี	-3084
ไลน์	-3085
เรือน	-3086
ากลุ่ม	-3087
▁ฤดูกาล	-3088
หมู่บ้าน	-3089
โครงสร้าง	-3090
ครั้งที่สอง	-3091
อินเทอร์เน็ต	-3092
นตา	-3093
▁มะ	-3094
เล่า	-3095
วิจัย	-3096
ชื่อเล่น	-3097
▁0.	-3098
ง่าย	-3099
▁สกุล	-3100
ายน้ํา	-3101
เปลี่ยนชื่อ	-3102
ri	-3103
ภพ	-3104
ฟัน	-3105
สไต	-3106
▁ดาว	-3107
ประสงค์	-3108
▁จัดขึ้นที่	-3109
เจ้าอยู่หัว	-3110
ศว	-3111
คัน	-3112
ปาล	-3113
ญัติ	-3114
บางครั้ง	-3115
เหล่านี้	-3116
ly	-3117
und	-3118
เวน	-3119
นต้น	-3120
กัมพูชา	-3121
ครั้งแรกเมื่อ	-3122
▁ยก	-3123
ล้อม	-3124
เชียงใหม่	-3125
▁z	-3126
ขัด	-3127
ขนาน	-3128
บัณฑ	-3129
หยุด	-3130
อยด์	-3131
▁ขึ้น	-3132
พรรดิน	-3133
ok	-3134
าท	-3135
เพล	-3136
อเร	-3137
▁เต	-3138
ปล่อย	-3139
ลิก	-3140
ิบ	-3141
โซล	-3142
ใช่	-3143
เสริม	-3144
ตัวเอง	-3145
ท่าน	-3146
▁พื้น	-3147
เหนือของประเทศ	-3148
ep	-3149
ฆ์	-3150
ิมะ	-3151
สีดํา	-3152
มีผลงาน	-3153
วงดนตรี	-3154
amp	-3155
ออกฉาย	-3156
ราชสีมา	-3157
▁ของประเทศ	-3158
ปริญญาตรี	-3159
▁เจ้าหญิง	-3160
ate	-3161
▁จุด	-3162
หลักของ	-3163
▁0000-0000	-3164
ไพ	-3165
หอม	-3166
โดยการ	-3167
ที่สร้าง	-3168
การแข่งขันกีฬา	-3169
าช	-3170
สุน	-3171
เลย	-3172
ล้าน	-3173
อธิก	-3174
วงศ์เธอ	-3175
พรีเมียร์ลีก	-3176
ล้ม	-3177
สุริย	-3178
▁พร้อม	-3179
ในสกุล	-3180
▁คะ	-3181
ข่าย	-3182
ปลูก	-3183
อ่าน	-3184
▁วาง	-3185
เอเชียนเกมส์	-3186
▁กา	-3187
▁สาข	-3188
พิจารณา	-3189
▁is	-3190
สะพาน	-3191
ชาวเยอรมัน	-3192
นักกีฬา	-3193
ของพระองค์	-3194
ประกอบไปด้วย	-3195
้ล	-3196
บิล	-3197
บัญญัติ	-3198
ไส	-3199
เมะ	-3200
ร้าน	-3201
หวาน	-3202
▁ราช	-3203
เข้าร	-3204
ประโยชน์	-3205
▁เจ้าชาย	-3206
พระบาทสมเด็จพระ	-3207
แกร	-3208
รถไฟฟ้า	-3209
ศี	-3210
▁ทุก	-3211
สวรรคต	-3212
▁ประพันธ์	-3213
ดุ	-3214
แอนด์	-3215
▁มีจํานวน	-3216
นท์	-3217
มักจะ	-3218
กรุงเทพ	-3219
ครี	-3220
นัน	-3221
ai	-3222
ight	-3223
ฟู	-3224
ยึด	-3225
เสร	-3226
▁ศรี	-3227
▁กรุงเทพมหานคร	-3228
ne	-3229
ort	-3230
ปืน	-3231
▁โบ	-3232
เด็จพระราชินี	-3233
น่า	-3234
เมีย	-3235
ob	-3236
ยื	-3237
มุข	-3238
เซนต์	-3239
เอียด	-3240
▁องค์การ	-3241
อธิกสุรทิน	-3242
ริยุ	-3243
ลังก์	-3244
ความรู้	-3245
ริยุปรา	-3246
้าก	-3247
ประสาท	-3248
หาด	-3249
เบต	-3250
เอน	-3251
สํารวจ	-3252
▁ไม่มี	-3253
มวยปล้ําอาชีพ	-3254
ical	-3255
เสร็จ	-3256
ในรัฐ	-3257
พื้นฐาน	-3258
ฮัง	-3259
เรา	-3260
แห้ง	-3261
ต่อจาก	-3262
โข	-3263
-000	-3264
▁ยาว	-3265
บังคับ	-3266
ide	-3267
ฮัน	-3268
อิสระ	-3269
ational	-3270
น้ําหนัก	-3271
ประชาชาติ	-3272
เกี่ยวข้องกับ	-3273
แห่งประเทศไทย	-3274
กด	-3275
ran	-3276
จอร์	-3277
ิสต์	-3278
▁เอฟ	-3279
ในปีนั้น	-3280
▁ตัวอย่าง	-3281
▁เป็นอดีต	-3282
สหภาพโซเวียต	-3283
ที่ใหญ่ที่สุด	-3284
หู	-3285
ron	-3286
ื้อสาย	-3287
ต่างประเทศ	-3288
ทอ	-3289
เน้น	-3290
ทะเลสาบ	-3291
▁อันดับ	-3292
ดังต่อไปนี้	-3293
ge	-3294
ขนม	-3295
เจนต	-3296
เยื่อ	-3297
มีชีวิต	-3298
บก	-3299
ถัด	-3300
ขึ้นเมื่อ	-3301
▁จัดอยู่ใน	-3302
ack	-3303
นิค	-3304
▁ออส	-3305
นูญ	-3306
พรรณ	-3307
อ่าว	-3308
ได้ใน	-3309
ละเอียด	-3310
ชิงแชมป์โลก	-3311
ตส์	-3312
ัมภ	-3313
านิ	-3314
อยุธ	-3315
ุกร์	-3316
นวนิยาย	-3317
io	-3318
na	-3319
ซึ	-3320
เอะ	-3321
▁วิล	-3322
บอร์ด	-3323
▁เป็นสาร	-3324
ประชาชนจีน	-3325
)"	-3326
ฮะ	-3327
ชั่ว	-3328
ยังคง	-3329
ธรรมนูญ	-3330
อุปกรณ์	-3331
ดับเบิลยูอี	-3332
ตั้งแต่วันที่	-3333
ดัน	-3334
นาว	-3335
เบส	-3336
▁cl	-3337
ประดับ	-3338
▁เขาได้	-3339
บัลลังก์	-3340
▁มีผู้พูด	-3341
ดําเนินการ	-3342
▁เป็นที่รู้จัก	-3343
ula	-3344
▁เฟ	-3345
▁pro	-3346
ขนส่ง	-3347
เทียม	-3348
มิวสิก	-3349
▁นักร้อง	-3350
▁ประเทศฝรั่งเศส	-3351
ษฐ์	-3352
ิ้ล	-3353
แขน	-3354
เติม	-3355
เพาะ	-3356
▁เอก	-3357
▁ชั้น	-3358
ที่ทํา	-3359
มาตรฐาน	-3360
▁เทศบาล	-3361
▁โดยใช้	-3362
▁ประสูติ	-3363
วิทยุโทรทัศน์	-3364
▁ปีก่อนคริสตกาล	-3365
yl	-3366
์ม	-3367
▁ในทาง	-3368
แผ่นดินหมายเลข	-3369
เป็นส่วนหนึ่งของ	-3370
โมะ	-3371
ไต้	-3372
▁ตร	-3373
แก่น	-3374
จารย์	-3375
ในยุค	-3376
และนัก	-3377
สัปดาห์	-3378
เจนตินา	-3379
โรงพยาบาล	-3380
จ์	-3381
ซิด	-3382
▁as	-3383
▁ซู	-3384
▁ท่า	-3385
อาวุธ	-3386
▁สํานัก	-3387
ord	-3388
ผัก	-3389
รอย	-3390
▁un	-3391
▁คล	-3392
เกีย	-3393
บทความ	-3394
▁ทะเล	-3395
อยุธยา	-3396
หลายชนิด	-3397
▁ในปัจจุบัน	-3398
▁เป็นเส้นทาง	-3399
pr	-3400
ยิง	-3401
าลง	-3402
ปารี	-3403
เลิก	-3404
ตุรกี	-3405
เชอร์	-3406
▁นิยม	-3407
▁มีขนาด	-3408
ระหว่างปี	-3409
▁เป็นบุตร	-3410
คริสต์ศักราช	-3411
ระหว่างประเทศ	-3412
▁วี	-3413
▁(000	-3414
การศึกษาระดับ	-3415
จืด	-3416
โกล	-3417
สงฆ์	-3418
เตอร์เทน	-3419
ens	-3420
ขวา	-3421
หัน	-3422
▁แฟ	-3423
บรมราช	-3424
รินทร์	-3425
สมบูรณ์	-3426
ยาก	-3427
ฮิต	-3428
คว้า	-3429
ิร์ต	-3430
▁แม้	-3431
เฉลิม	-3432
ของพืช	-3433
รวมถึง	-3434
▁กํากับโดย	-3435
man	-3436
กลิ่น	-3437
▁ตั้งแต่ปี	-3438
ต้ม	-3439
ป่วย	-3440
ที่ดี	-3441
หน้าน	-3442
ในกลุ่ม	-3443
ความนิยม	-3444
นครราชสีมา	-3445
▁ปร	-3446
เก้า	-3447
เวที	-3448
จะได้	-3449
ไปถึง	-3450
ตอนแรก	-3451
รัชสมัย	-3452
ความหมาย	-3453
รัชกาลที่	-3454
สถาปัตยกรรม	-3455
ถัง	-3456
อธิ	-3457
ค่อน	-3458
ปีที่	-3459
กันเป็น	-3460
เชื้อสาย	-3461
แต่งตั้ง	-3462
▁คริสต์ศักราช	-3463
ตอบ	-3464
รก็	-3465
แม้	-3466
เย็น	-3467
▁รถไฟ	-3468
อํานวย	-3469
ให้แก่	-3470
ตีพิมพ์	-3471
ใช้ในการ	-3472
▁สถานีรถไฟ	-3473
ฐม	-3474
คาบ	-3475
ยอง	-3476
▁โก	-3477
ต์แวร์	-3478
▁เสียง	-3479
▁รายการ	-3480
▁เป็นรายการ	-3481
ทบ	-3482
หง	-3483
ฤกษ์	-3484
กันใน	-3485
ปัญหา	-3486
เนียง	-3487
้ย	-3488
คาม	-3489
โลหะ	-3490
▁แบบ	-3491
บรรจุ	-3492
▁เอ็น	-3493
กลับมา	-3494
▁หม่อม	-3495
ครอบครัว	-3496
เฟอร์	-3497
พรรดินี	-3498
สุริยคติ	-3499
ือบ	-3500
หวัน	-3501
▁สถาน	-3502
เข้าชิง	-3503
ิฟ	-3504
เบื้อง	-3505
ฮังการี	-3506
ชะ	-3507
ชีว	-3508
เซียน	-3509
วยอร์ก	-3510
▁ภายใน	-3511
พลังงาน	-3512
ไม่เกิน	-3513
▁ออกฉาย	-3514
หอ	-3515
โมง	-3516
าว่า	-3517
▁ผ่าน	-3518
▁กองทัพ	-3519
▁แซ	-3520
โฆษณา	-3521
▁กีฬา	-3522
มาแล้ว	-3523
▁จอห์น	-3524
ออสการ์	-3525
เนื้อหา	-3526
ry	-3527
▁00)	-3528
จัดตั้ง	-3529
▁ตรงกับปี	-3530
สุดท้ายของ	-3531
▁หลังจากนั้น	-3532
วาน	-3533
ถึงวัน	-3534
แอนตาร์	-3535
▁0,000,000	-3536
อาร์เจนตินา	-3537
ขวัญ	-3538
สตาร์	-3539
ทีวีสี	-3540
ซูเปอร์	-3541
สมรสกับ	-3542
ฮ์	-3543
▁รี	-3544
โปรด	-3545
▁นิว	-3546
บัญชา	-3547
▁[[00	-3548
น้ํามัน	-3549
ปักกิ่ง	-3550
▁เป็นรูปแบบ	-3551
เป็นครั้งแรก	-3552
อาย	-3553
กติก	-3554
เมล็ด	-3555
▁รุ่น	-3556
สถาปนา	-3557
อิเล็ก	-3558
ซัส	-3559
ส้ม	-3560
ุยส์	-3561
ทําลาย	-3562
ชื่อตาม	-3563
▁เป็นคํา	-3564
ทีวีสีช่อง	-3565
เรียบเรียง	-3566
ev	-3567
รีก	-3568
เทา	-3569
▁ฟา	-3570
ขวาง	-3571
ครีบ	-3572
เป้า	-3573
พระยา	-3574
ริยุปราคา	-3575
สุริยคติแบบ	-3576
ซาก	-3577
คอร์	-3578
ียอด	-3579
▁หาก	-3580
ัญชนะ	-3581
ฟาโรห์	-3582
▁จากการ	-3583
ยังเหลือ	-3584
วรรณกรรม	-3585
▁ซิงเกิล	-3586
ลอด	-3587
เซา	-3588
ไตร	-3589
▁นก	-3590
▁สาร	-3591
ตาราง	-3592
โดเมน	-3593
นี้คือ	-3594
ที่มีการ	-3595
กลง	-3596
ดี้	-3597
▁0,	-3598
ระบุ	-3599
▁ฟุต	-3600
สัญญาณ	-3601
▁ปล	-3602
▁โคร	-3603
ชายของ	-3604
ที่สาม	-3605
▁ด้านล่าง	-3606
▁ประจําปี	-3607
ขอ	-3608
กติกา	-3609
ากลาง	-3610
ทางแยก	-3611
▁0000.	-3612
สนามกีฬา	-3613
ละครเรื่อง	-3614
▁จนกระทั่ง	-3615
บัว	-3616
มูล	-3617
เบก	-3618
ป็อป	-3619
เจ็ด	-3620
▁เล่น	-3621
ผลิตภัณฑ์	-3622
พื้นเมือง	-3623
บร	-3624
เซโล	-3625
ปารีส	-3626
เทือก	-3627
▁form	-3628
▁และใน	-3629
หนาแน่น	-3630
สามเหลี่ยม	-3631
โว	-3632
ไรก็	-3633
ขณะที่	-3634
สวรรค์	-3635
▁ส่วนใหญ่	-3636
▁เป็นวันที่	-3637
สาข	-3638
แนก	-3639
ภรณ์	-3640
อุณห	-3641
▁แหล	-3642
เล็กน้อย	-3643
ธร	-3644
ซุน	-3645
บุร	-3646
วิช	-3647
เคาน	-3648
โทรทัศน์โดย	-3649
โดร	-3650
โพล	-3651
กันดี	-3652
นิยาย	-3653
ฮ่องกง	-3654
ure	-3655
บาน	-3656
พิก	-3657
โอน	-3658
ัญญา	-3659
อวกาศ	-3660
บัณฑิต	-3661
วิกิพีเดีย	-3662
สหประชาชาติ	-3663
ไทยทีวีสีช่อง	-3664
เกล้าเจ้าอยู่หัว	-3665
ระบ	-3666
ากัน	-3667
ร้องโดย	-3668
ไม่สามารถ	-3669
แรม	-3670
โยะ	-3671
▁an	-3672
สมอง	-3673
ออร์	-3674
เอ็ด	-3675
โอกาส	-3676
วันอีก	-3677
พี่น้อง	-3678
ตะวันออกของ	-3679
▁เมื่อถึงวัน	-3680
นี่	-3681
▁เฉ	-3682
สามัญ	-3683
ตํานาน	-3684
ซีแลนด์	-3685
ครอบคลุม	-3686
ทําให้เกิด	-3687
พรรคการเมือง	-3688
▁วันในปีนั้น	-3689
ขึ้นครองราชย์	-3690
นี้จะยังเหลือ	-3691
ในสหรัฐอเมริกา	-3692
นิท	-3693
อรี	-3694
แฮม	-3695
ิวัติ	-3696
ฤดูร้อน	-3697
หน่วยงาน	-3698
กระจายพันธุ์	-3699
บอน	-3700
orld	-3701
ื่อย	-3702
ของเธอ	-3703
ความเป็น	-3704
กีฬาโอลิมปิก	-3705
▁ประเทศเกาหลีใต้	-3706
ถม	-3707
ผี	-3708
ชิน	-3709
มัง	-3710
สึก	-3711
ศุกร์	-3712
เพลงที่	-3713
อเมริกาใต้	-3714
ลัก	-3715
▁pl	-3716
▁แอ	-3717
ประดิ	-3718
เรสต์	-3719
ของนัก	-3720
สหพันธ์	-3721
▁ในวงศ์	-3722
ที่สามารถ	-3723
uc	-3724
ตอม	-3725
อว์	-3726
ซื้อ	-3727
อนาคต	-3728
▁ปลาย	-3729
กันว่า	-3730
ไหม	-3731
ซิตี	-3732
▁แขวง	-3733
ปฏิวัติ	-3734
bo	-3735
แนล	-3736
▁สง	-3737
เสรี	-3738
เช่นกัน	-3739
ach	-3740
▁คู่	-3741
เนียม	-3742
▁แผ่น	-3743
ที่สูง	-3744
เซโลนา	-3745
เป็นรูป	-3746
▁บางครั้ง	-3747
▁นักมวยสากล	-3748
จรา	-3749
▁หรือชื่อ	-3750
▁วอลเลย์บอลชาย	-3751
ฆ่า	-3752
ทาย	-3753
่ว่า	-3754
▁ถ้า	-3755
ใต้ของประเทศ	-3756
บาด	-3757
เคน	-3758
เว้น	-3759
เชื่อมต่อ	-3760
แอนตาร์กติกา	-3761
ตลก	-3762
โหล	-3763
่าม	-3764
▁คา	-3765
อยู่อ	-3766
หัสบดี	-3767
ในระบบ	-3768
าก็	-3769
โจว	-3770
▁sy	-3771
▁จู	-3772
ซาร์	-3773
สตรี	-3774
เหมา	-3775
โรมา	-3776
อาจจะ	-3777
อธิบาย	-3778
อุทยาน	-3779
กลุ่มดาว	-3780
ทําหน้าที่	-3781
▁ท้องที่อําเภอ	-3782
ind	-3783
ดิส	-3784
ซ้อน	-3785
▁เป็นภาษา	-3786
คณิตศาสตร์	-3787
ปีก	-3788
▁sp	-3789
ศิลป์	-3790
หร่าน	-3791
ection	-3792
ที่สุดในโลก	-3793
ดาน	-3794
ทรู	-3795
รีย	-3796
วาร	-3797
สโล	-3798
เจลิส	-3799
..	-3800
ปู	-3801
ฤต	-3802
โภ	-3803
ท็อป	-3804
สัญญ	-3805
าร์ล	-3806
ยอมรับ	-3807
เฉลี่ย	-3808
แบ่งเขตการปกครอง	-3809
โส	-3810
ont	-3811
ทูต	-3812
สมอ	-3813
เหลว	-3814
▁ว่า	-3815
รักษ์	-3816
เลียม	-3817
แชมเปียน	-3818
่ย	-3819
ไส้	-3820
▁รัก	-3821
เสนอชื่อ	-3822
หนึ่งของจังหวัด	-3823
ษก	-3824
ิยม	-3825
▁รา	-3826
tern	-3827
อร์ต	-3828
ัดแปลง	-3829
เว็บไซต์	-3830
▁ที่นั่ง	-3831
ื่ม	-3832
▁or	-3833
▁โท	-3834
เปีย	-3835
▁มาร์	-3836
กีตาร์	-3837
▁ห่างจาก	-3838
▁ประเทศสเปน	-3839
="	-3840
ial	-3841
ทุม	-3842
ไซด์	-3843
หม่อม	-3844
▁ในเมือง	-3845
ซอฟต์แวร์	-3846
▁เป็นสกุล	-3847
ครั้งแรกในปี	-3848
อเมริกาเหนือ	-3849
จราจร	-3850
ความยาว	-3851
พยัญชนะ	-3852
▁เป็นตัวละคร	-3853
ีด	-3854
ary	-3855
ฟ่า	-3856
ลับ	-3857
วุฒ	-3858
แท้	-3859
เท้า	-3860
หนุ่ม	-3861
ในทวีป	-3862
ทางรถไฟ	-3863
▁ยูไนเต็ด	-3864
▁ในโทรทัศน์	-3865
แช	-3866
เษก	-3867
▁ลง	-3868
▁เย	-3869
เชิญ	-3870
เข้าใจ	-3871
ในเรื่อง	-3872
กอ	-3873
เขตร	-3874
เขมร	-3875
หว่างวันที่	-3876
▁เป็นสถานีรถไฟ	-3877
_0	-3878
▁ที	-3879
นต่อ	-3880
บนสุด	-3881
วบรวม	-3882
ซอ	-3883
ควร	-3884
ชาน	-3885
ิเม	-3886
นนิส	-3887
▁แชม	-3888
จะถูก	-3889
ซีเกมส์	-3890
กล่าวถึง	-3891
ได้มีการ	-3892
▁จัดเป็น	-3893
ต่อเนื่อง	-3894
จัดขึ้นที่	-3895
ญาต	-3896
ราง	-3897
▁สะ	-3898
▁ครี	-3899
ภิเษก	-3900
สถิติ	-3901
าน้ํา	-3902
จูดที่	-3903
ทองคํา	-3904
คอมมิวน	-3905
▁ประมาณ	-3906
▁formula	-3907
sp	-3908
▁ดํา	-3909
เผยแพร่	-3910
คล้ายกับ	-3911
กระบวนการ	-3912
ภายใต้การ	-3913
▁พระองค์เจ้า	-3914
–0	-3915
แคบ	-3916
▁ไฟ	-3917
กลอง	-3918
ารย์	-3919
เกิล	-3920
อสแอน	-3921
เพลิง	-3922
เพอร์	-3923
ของโลก	-3924
นิวยอร์ก	-3925
อสแอนเจลิส	-3926
มู	-3927
นิช	-3928
าวา	-3929
▁แค	-3930
▁ต้น	-3931
ประสูติ	-3932
๋ย	-3933
ชุมชน	-3934
ทิเบต	-3935
กิจการ	-3936
ฟอร์เนีย	-3937
อินเตอร์	-3938
ครบ	-3939
อัก	-3940
▁โด	-3941
สนใจ	-3942
เจ็บ	-3943
จอห์น	-3944
ราษฎร์	-3945
อย่างมาก	-3946
แบ่งออกเป็น	-3947
แปร	-3948
▁เอส	-3949
สี่เหลี่ยม	-3950
ผ่านพื้นที่	-3951
▁ร่วมกับ	-3952
สมัครเล่น	-3953
เป็นที่ตั้ง	-3954
๊ะ	-3955
ove	-3956
ขาด	-3957
แปด	-3958
▁bo	-3959
การะ	-3960
▁คุณ	-3961
▁แต่ง	-3962
ระเบิด	-3963
เบิร์ต	-3964
▁ดอกช่อ	-3965
เรสต์ลิง	-3966
▁'	-3967
พงษ์	-3968
▁มาก	-3969
และความ	-3970
▁เรียกว่า	-3971
ัทร	-3972
เล่ม	-3973
เอกราช	-3974
▁ราชวงศ์	-3975
▁เริ่มใช้	-3976
บาร์เซโลนา	-3977
ขึ้นทะเบียน	-3978
ที่เรียกว่า	-3979
ประพันธ์ของ	-3980
มีชื่อเสียง	-3981
รษ	-3982
▁ฯ	-3983
ทยา	-3984
ธิส	-3985
บโต	-3986
รัน	-3987
โจม	-3988
▁ลี	-3989
จํากัด	-3990
ตรงข้าม	-3991
อิหร่าน	-3992
ดิวเซอร์	-3993
พฤหัสบดี	-3994
ตั้งอยู่ใน	-3995
▁ปัจจุบันมี	-3996
te	-3997
ปาน	-3998
ิกิริ	-3999
▁แหล่ง	-4000
พิธภัณฑ์	-4001
บาส	-4002
▁จิ	-4003
เคยเป็น	-4004
เกิดขึ้น	-4005
▁ทางหลวง	-4006
ฟุตบอลโลก	-4007
ิฟอร์เนีย	-4008
ตอง	-4009
บอย	-4010
บัญชี	-4011
▁เสมอ	-4012
านุกรม	-4013
▁ลําต้น	-4014
จากประเทศ	-4015
ออกจําหน่าย	-4016
ram	-4017
สูญ	-4018
แพง	-4019
ลีย์	-4020
อัตรา	-4021
▁ระดับ	-4022
ระยะเวลา	-4023
อาร์กติก	-4024
กม	-4025
เดอ	-4026
เพน	-4027
กล้าม	-4028
ซึ่งมี	-4029
สายการบิน	-4030
▁อย่างไรก็	-4031
มาด	-4032
ีร์	-4033
▁แส	-4034
▁องค์	-4035
▁0000–00	-4036
▁ประเทศจีน	-4037
ผู้นําประเทศ	-4038
ost	-4039
กรด	-4040
สลาย	-4041
การใช้	-4042
▁กําหนด	-4043
▁เป็นปลา	-4044
ถู	-4045
ไชย	-4046
▁ดร	-4047
มอร์	-4048
▁00%	-4049
ภาษาก	-4050
▁แข่ง	-4051
ไต้หวัน	-4052
▁เปลือก	-4053
เป็นมรดกโลก	-4054
ที่ได้รับการ	-4055
ฝี	-4056
▁โต	-4057
ทรอน	-4058
▁นาที	-4059
กลา	-4060
ตี้	-4061
ต้า	-4062
ลล์	-4063
▁แฮ	-4064
กรีก	-4065
ชมพู	-4066
▁มิว	-4067
ละติน	-4068
▁ช่วง	-4069
▁นั้น	-4070
ตํารวจ	-4071
ในภาษา	-4072
▁world	-4073
▁พรรษา	-4074
▁แต่ก็	-4075
สัญชาติ	-4076
เจ้าของ	-4077
ร้องเพลง	-4078
อันดับของ	-4079
หลง	-4080
าละ	-4081
เทว	-4082
ment	-4083
ดื่ม	-4084
ต่าน	-4085
อลล์	-4086
▁วิน	-4087
▁หัว	-4088
เด็จพระราชา	-4089
iz	-4090
ซอน	-4091
▁ชา	-4092
▁รู	-4093
พุ่ม	-4094
เต้น	-4095
รัตน์	-4096
▁เพลงนี้	-4097
▁มีความยาว	-4098
ฝน	-4099
แป้ง	-4100
ทฤษฎี	-4101
▁ไมล์	-4102
อนุญาต	-4103
ร่วมกัน	-4104
คอมมิวนิสต์	-4105
▁ประเทศบราซิล	-4106
ตั้งอยู่ทางทิศ	-4107
oly	-4108
ฟิส	-4109
แร่	-4110
มุ่ง	-4111
หุ้ม	-4112
ยืนต้น	-4113
ุลต่าน	-4114
ผู้เล่น	-4115
ไทยแลนด์	-4116
▁ดําเนิน	-4117
ถือว่าเป็น	-4118
ทางการเมือง	-4119
นี้เป็นรายชื่อ	-4120
▁๒	-4121
เก็ต	-4122
โค้ง	-4123
ภาษาม	-4124
สถานะ	-4125
เทือกเขา	-4126
▁ก่อนที่จะ	-4127
▁และได้รับ	-4128
▁วางจําหน่าย	-4129
สป	-4130
age	-4131
our	-4132
จาน	-4133
ื้อย	-4134
เหสี	-4135
enter	-4136
อังคาร	-4137
สําเนียง	-4138
งามจักรวาล	-4139
ชิล	-4140
ยืน	-4141
คราว	-4142
พจน์	-4143
ยุทธการ	-4144
เก่าแก่	-4145
▁ในเดือน	-4146
ที่ตั้งอยู่ใน	-4147
▁ในปีอธิกสุรทิน	-4148
ib	-4149
iss	-4150
ซี่	-4151
ทราบ	-4152
นติก	-4153
ิร์ล	-4154
▁แทน	-4155
กระแส	-4156
ดาวน์	-4157
ว่ามี	-4158
▁แสดง	-4159
หลักสูตร	-4160
▁ทางช่อง	-4161
สิ่งมีชีวิต	-4162
ผน	-4163
โฉ	-4164
com	-4165
น่าน	-4166
ิกาย	-4167
▁พัฒ	-4168
▁000)	-4169
ของไทย	-4170
จําแนก	-4171
เติบโต	-4172
การสร้าง	-4173
▁ใบเดี่ยว	-4174
ug	-4175
โพร	-4176
▁ไร่	-4177
ตระกูลภาษา	-4178
orm	-4179
ตาก	-4180
ปฐม	-4181
อลิ	-4182
ฬาลง	-4183
ุนแรง	-4184
และผู้	-4185
section	-4186
▁ท่าอากาศยาน	-4187
per	-4188
ณิช	-4189
ยัน	-4190
วส์	-4191
ุทธิ	-4192
▁วิก	-4193
ยายาม	-4194
โดยเฉพาะ	-4195
โดยทั่วไป	-4196
ในภาพยนตร์	-4197
ดาวเคราะห์น้อย	-4198
๋ว	-4199
ริส	-4200
ก้าน	-4201
หาราช	-4202
ไปตาม	-4203
▁มุ่ง	-4204
ส่วนของ	-4205
ิงเกิ้ล	-4206
ระดับบนสุด	-4207
ราชบัลลังก์	-4208
ผ่านมหาสมุทร	-4209
ff	-4210
ยะมะ	-4211
พวกเขา	-4212
ําร้อง	-4213
▁0000"	-4214
ส่วนตัว	-4215
สร้างเป็น	-4216
▁ได้มีการ	-4217
คิ	-4218
พน	-4219
รน	-4220
ory	-4221
แบน	-4222
▁/>	-4223
▁เมล	-4224
▁ฟาโรห์	-4225
▁ถือเป็น	-4226
รัฐธรรมนูญ	-4227
▁ตั้งอยู่ทาง	-4228
ma	-4229
งา	-4230
อลล	-4231
มเหสี	-4232
เขตร้อน	-4233
ก่อนหน้า	-4234
▁ประเทศเยอรมนี	-4235
ium	-4236
ซิม	-4237
ดุล	-4238
โทษ	-4239
▁นคร	-4240
เอกชน	-4241
รวบรวม	-4242
▁(0000	-4243
ที่นั่ง	-4244
▁เขายัง	-4245
ปรับปรุง	-4246
แอตแลนติก	-4247
ลฯ	-4248
ฮัม	-4249
▁จุ	-4250
▁ได	-4251
▁ยอด	-4252
ประหาร	-4253
มีส่วน	-4254
แรกที่	-4255
▁0000(	-4256
ตอนกลาง	-4257
ค่อนข้าง	-4258
▁สําเร็จ	-4259
▁แข่งขัน	-4260
son	-4261
ลุก	-4262
หมู	-4263
▁be	-4264
อัคร	-4265
▁ขอบ	-4266
อะตอม	-4267
เสื้อ	-4268
แกเรีย	-4269
▁ออกอากาศทุกวัน	-4270
▁!	-4271
คอย	-4272
▁ไซ	-4273
แต่อ	-4274
▁จัน	-4275
เนสโก	-4276
▁การ์	-4277
แปลว่า	-4278
▁champ	-4279
โรมาเนีย	-4280
คุณสมบัติ	-4281
▁ในการแข่งขัน	-4282
ุป	-4283
act	-4284
ามห	-4285
▁sc	-4286
หมุน	-4287
โบสถ	-4288
จารณ์	-4289
เทียน	-4290
▁มณฑล	-4291
ั้งเดิม	-4292
▁เป็นเครื่อง	-4293
กาน	-4294
ิวะ	-4295
เมทัล	-4296
▁ตลอด	-4297
▁เอ็ม	-4298
ชาติใน	-4299
ปริมาณ	-4300
se	-4301
uk	-4302
ริด	-4303
▁tr	-4304
งการ	-4305
หญ้า	-4306
▁ฯลฯ	-4307
สไตน์	-4308
เรือง	-4309
▁สิ้น	-4310
จะต้อง	-4311
ในรายการ	-4312
ดาราศาสตร์	-4313
นิวซีแลนด์	-4314
▁มีเนื้อที่	-4315
▁รถไฟใต้ดิน	-4316
อาณ	-4317
▁he	-4318
พฤติ	-4319
ปราสาท	-4320
มีชื่อ	-4321
อิสลาม	-4322
▁สหรัฐ	-4323
ต่อต้าน	-4324
▁โดยการ	-4325
จัดขึ้นใน	-4326
บรมวงศ์เธอ	-4327
ue	-4328
ศพ	-4329
ath	-4330
กุม	-4331
ดอร์	-4332
พบใน	-4333
ห้วย	-4334
เสมอ	-4335
เหมาะ	-4336
มากขึ้น	-4337
ให้เกิด	-4338
▁เกาหลี	-4339
พร้อมกับ	-4340
ฬาลงกรณ์	-4341
สําคัญของ	-4342
ไอร์แลนด์	-4343
พระสันตะปาปา	-4344
เป็นเมืองหลวง	-4345
ฟรี	-4346
แวด	-4347
▁ธง	-4348
▁โช	-4349
กลีบ	-4350
ลองจิ	-4351
านิคม	-4352
เนียน	-4353
▁กิ่ง	-4354
รุนแรง	-4355
เทนนิส	-4356
จัดขึ้น	-4357
▁กระทรวง	-4358
▁ภายหลัง	-4359
▁champion	-4360
▁ประเทศไทย	-4361
แคลิฟอร์เนีย	-4362
▁เป็นอัลบั้ม	-4363
ว่าการกระทรวง	-4364
ธาน	-4365
บุก	-4366
▁ตะ	-4367
วันแรก	-4368
เวิร์ด	-4369
▁เรียง	-4370
ที่นิยม	-4371
อุณหภูมิ	-4372
ผู้โดยสาร	-4373
▁ประเทศกรีซ	-4374
แฟน	-4375
▁""	-4376
นตอน	-4377
▁กิน	-4378
▁เรียก	-4379
ฤดูหนาว	-4380
ตัวอักษร	-4381
ศิ	-4382
มีน	-4383
เสือ	-4384
ไปใน	-4385
▁พวก	-4386
▁เหล	-4387
แกรนด์	-4388
ได้ถูก	-4389
ยูเนสโก	-4390
ทัพบกช่อง	-4391
ทีมชาติไทย	-4392
ทุ	-4393
ควิ	-4394
นาถ	-4395
เมอ	-4396
อักษ	-4397
▁wwe	-4398
▁มาร	-4399
จะใช้	-4400
▁ขนาด	-4401
▁อาทิ	-4402
จําเป็น	-4403
▁โดยได้	-4404
บรู	-4405
มอส	-4406
อุส	-4407
เตน	-4408
ษฐาน	-4409
แมลง	-4410
▁ออสเตร	-4411
ากา	-4412
▁am	-4413
ขั้น	-4414
ฉลอง	-4415
เอเธ	-4416
▁0–0	-4417
ยังไม่	-4418
สปีชีส์	-4419
▁ทีมที่	-4420
▁โดยทั่วไป	-4421
๊ส	-4422
มณ์	-4423
ม้า	-4424
เดช	-4425
โรม	-4426
▁ลิ	-4427
รรยา	-4428
อนด์	-4429
พยายาม	-4430
เลื่อน	-4431
วิจารณ์	-4432
าราชการ	-4433
ฟินแลนด์	-4434
▁ดับเบิลยู	-4435
เสนอชื่อเข้าชิง	-4436
สแต	-4437
าส์	-4438
▁ซา	-4439
▁โฮ	-4440
บุรุษ	-4441
รัชญา	-4442
กรีนิช	-4443
เสิร์ต	-4444
โดยใช้	-4445
▁00:00	-4446
ปฏิกิริ	-4447
ผิดปกติ	-4448
▁และนัก	-4449
ที่มาจาก	-4450
ที่สุดของ	-4451
หนังสือพิมพ์	-4452
ษุ	-4453
ish	-4454
▁ne	-4455
▁พี	-4456
ถ้วย	-4457
ย่าน	-4458
ให้น	-4459
สู่วง	-4460
เวียง	-4461
แรกใน	-4462
ชัดเจน	-4463
เป็นของ	-4464
ประจําปี	-4465
อัม	-4466
▁สูง	-4467
เกือบ	-4468
▁สปีชีส์	-4469
สํานักพิมพ์	-4470
ซอง	-4471
เร็ง	-4472
▁ปริ	-4473
▁มิล	-4474
กล้อง	-4475
▁แจ็ก	-4476
เอเธนส์	-4477
โดดเด่น	-4478
คาบสมุทร	-4479
อุดมศึกษา	-4480
เกาหลีเหนือ	-4481
▁เป็นจังหวัด	-4482
▁ในประเทศจีน	-4483
เด็จพระราชาธิบดี	-4484
...	-4485
ies	-4486
ond	-4487
ซัม	-4488
ออล	-4489
กรณี	-4490
ยุติ	-4491
โคจร	-4492
่งดัง	-4493
▁ท่าน	-4494
ประทับ	-4495
เขาได้	-4496
เลื้อย	-4497
แอนิเม	-4498
สื่อสาร	-4499
▁และอยู่	-4500
การศึกษาจาก	-4501
▁ในสหรัฐอเมริกา	-4502
ณฑ์	-4503
แค่	-4504
ไพร	-4505
มั่น	-4506
สังหาร	-4507
สุวรรณ	-4508
ดัดแปลง	-4509
บัลแกเรีย	-4510
▁เริ่มต้น	-4511
ที่ตั้งอยู่	-4512
▁องศาตะวันตก	-4513
ohn	-4514
ore	-4515
คาส	-4516
รรณ	-4517
ให้มี	-4518
สามก๊ก	-4519
กิจกรรม	-4520
▁อําเภอบ	-4521
ous	-4522
ซัล	-4523
ทอล	-4524
ปทุม	-4525
▁ฟิล	-4526
ไว้ใน	-4527
ซิดนีย์	-4528
แต่งงาน	-4529
ออกเสียง	-4530
สิ้นพระชนม์	-4531
▁&	-4532
เลส	-4533
ตราย	-4534
หวัง	-4535
▁โนะ	-4536
▁สิ่ง	-4537
▁ประตู	-4538
ชื่อดัง	-4539
▁ก่อนจะ	-4540
▁และในปี	-4541
อย่างหนึ่ง	-4542
ศักดิ์สิทธิ์	-4543
สุก	-4544
นตรี	-4545
สว่าง	-4546
▁ชั่ว	-4547
▁ไมเคิล	-4548
ในสังกัด	-4549
เส้นวงกลม	-4550
สําหรับการ	-4551
▁เป็นนักแสดงชาย	-4552
กว	-4553
url	-4554
มิล	-4555
▁on	-4556
▁แล	-4557
วิชั่น	-4558
ด้านการ	-4559
▁บทความ	-4560
ดั้งเดิม	-4561
ามหาวิทยาลัย	-4562
▁กรุงโตเกียว	-4563
aw	-4564
az	-4565
▁ph	-4566
เจีย	-4567
โซมา	-4568
▁ทอง	-4569
ทบุรี	-4570
จําพวก	-4571
เป็นอาหาร	-4572
รหัสประเทศ	-4573
▁นอกจากนั้น	-4574
คริสต์ทศวรรษ	-4575
ระดับบนสุดตาม	-4576
▁ของการแข่งขัน	-4577
ธน	-4578
ลุ	-4579
ัทธ	-4580
เซฟ	-4581
▁co	-4582
▁โย	-4583
สยาม	-4584
▁ตําแหน่ง	-4585
ของพระเจ้า	-4586
▁เป็นโดเมน	-4587
ประพันธ์โดย	-4588
▁มหาสมุทรใต้	-4589
▁นักมวยสากลชาว	-4590
เส้นวงกลมใหญ่ของ	-4591
พุธ	-4592
ภาร	-4593
กึ่ง	-4594
▁ต่อไป	-4595
▁ปรากฏ	-4596
ดาวฤกษ์	-4597
▁เส้นลองจิ	-4598
▁อย่างไรก็ตาม	-4599
ในประเทศญี่ปุ่น	-4600
cct	-4601
ตีน	-4602
▁โน	-4603
ทริก	-4604
รงค์	-4605
สนุก	-4606
▁mar	-4607
▁เหม	-4608
เคาน์	-4609
เลกุล	-4610
ัมภีร์	-4611
แมนติก	-4612
เจ้าชาย	-4613
ที่ไม่มี	-4614
บัญชาการ	-4615
เชสเตอร์	-4616
▁ชั่วโมง	-4617
๊ป	-4618
ith	-4619
จุล	-4620
ฉาก	-4621
ใคร	-4622
▁ไท	-4623
ศิริ	-4624
โจมตี	-4625
▁ฉบับ	-4626
ฝึกสอน	-4627
ผู้หญิง	-4628
หลักฐาน	-4629
เขียนบท	-4630
ตัวอย่าง	-4631
อาณานิคม	-4632
▁พื้นที่	-4633
เกิดจากการ	-4634
ฝัน	-4635
ลี่	-4636
เปิล	-4637
ไม่น	-4638
▁you	-4639
▁โซล	-4640
วิชัน	-4641
้ารูป	-4642
▁00–00	-4643
วิชาการ	-4644
▁สงคราม	-4645
▁0000([[	-4646
▁ใช้ชื่อ	-4647
▁มุ่งหน้า	-4648
พระมหากษัตริย์	-4649
ัณ	-4650
rom	-4651
▁pr	-4652
ปลาส	-4653
▁เดอ	-4654
▁0-00	-4655
กับการ	-4656
ขสิทธิ์	-4657
ข้อความ	-4658
cy	-4659
บูร	-4660
▁bl	-4661
▁ฮิ	-4662
ประถม	-4663
มหาชน	-4664
ยุกต์	-4665
ศาสตรา	-4666
ของเมือง	-4667
เจ้าหญิง	-4668
▁ดังนั้น	-4669
จูดที่ลาก	-4670
อาศัยอยู่	-4671
รางวัลออสการ์	-4672
รอ	-4673
ชิต	-4674
เซม	-4675
ship	-4676
วิ่ง	-4677
ฟอร์ด	-4678
ภาษาส	-4679
ประสาน	-4680
เพลงนี้	-4681
▁ในสมัย	-4682
สังคมนิยม	-4683
ของราชวงศ์	-4684
▁กรุงลอนดอน	-4685
ใต้สู่ขั้วโลกใต้	-4686
erv	-4687
ลาน	-4688
แกง	-4689
ทิ้ง	-4690
นาการ	-4691
่อยู่	-4692
ตัวของ	-4693
ที่เคย	-4694
ล่าสุด	-4695
แนวคิด	-4696
เอฟเอ็ม	-4697
▁ล้านคน	-4698
▁สถาบัน	-4699
ความเร็ว	-4700
ในบริเวณ	-4701
▁ประเทศแคนาดา	-4702
เลง	-4703
stem	-4704
พงศ์	-4705
ือนต	-4706
cctld	-4707
เหย้า	-4708
ได้อย่าง	-4709
มอบรางวัล	-4710
ของประเทศไทย	-4711
▁เทศบาลตําบล	-4712
จัดการแข่งขัน	-4713
▁วอลเลย์บอลหญิง	-4714
▁[	-4715
ปาง	-4716
ถวาย	-4717
เข็ม	-4718
▁ก้าน	-4719
ขึ้นไป	-4720
ในอดีต	-4721
วิธีการ	-4722
▁โดยที่	-4723
ของกลุ่ม	-4724
old	-4725
ภิก	-4726
iaceae	-4727
เจ้าภาพ	-4728
ชิงชนะเลิศ	-4729
เตอร์เทนเมนต์	-4730
ัศ	-4731
นิน	-4732
แสน	-4733
▁br	-4734
ลายู	-4735
วิศว	-4736
อร์ส	-4737
▁แยก	-4738
วิหาร	-4739
คนหนึ่ง	-4740
ร่วมมือ	-4741
แวดล้อม	-4742
พันธมิตร	-4743
เรียบเรียงโดย	-4744
▁บทโทรทัศน์โดย	-4745
ign	-4746
ชิพ	-4747
หวน	-4748
เปน	-4749
สะกด	-4750
เซิล	-4751
▁mus	-4752
ทดลอง	-4753
ในภาค	-4754
รับรอง	-4755
อนแก่น	-4756
ทรอนิกส์	-4757
แบ่งเป็น	-4758
▁ระยะทาง	-4759
ของมนุษย์	-4760
▁ชื่อเล่น	-4761
จม	-4762
กุฎ	-4763
คาด	-4764
ทรา	-4765
สะด	-4766
▁aw	-4767
เผ่า	-4768
นิกาย	-4769
ขุนนาง	-4770
อตแลนด์	-4771
ประดิษฐ์	-4772
▁เป็นพระราชโอรส	-4773
/0	-4774
ดาร	-4775
ันดับ	-4776
ไมโคร	-4777
าวิหาร	-4778
แทนที่	-4779
▁00000	-4780
ธันวาคม	-4781
▁อิตาลี	-4782
สู่วงการ	-4783
▁ในขณะที่	-4784
▁มีชื่อเสียง	-4785
วอลเลย์บอลหญิง	-4786
เข้าร่วมแข่งขัน	-4787
มาส	-4788
รี่	-4789
เตะ	-4790
ากรร	-4791
ากระ	-4792
▁คิม	-4793
ในวัน	-4794
ผู้ใช้	-4795
แอนิเมชัน	-4796
ชาวฝรั่งเศส	-4797
ลอสแอนเจลิส	-4798
ys	-4799
ice	-4800
พัง	-4801
ยี่	-4802
ฮิน	-4803
▁ไฮ	-4804
บ้าง	-4805
โชว์	-4806
▁บุญ	-4807
วัฒน์	-4808
ีสถาน	-4809
อาจารย์	-4810
เป็นภาษา	-4811
ช่วยเหลือ	-4812
เดือนเป็นวัน	-4813
▁เป็นครั้งที่	-4814
co	-4815
ณุ	-4816
ปลด	-4817
ปัส	-4818
▁ปาก	-4819
▁ผิว	-4820
ังหวะ	-4821
สมาพันธ์	-4822
อยู่อาศัย	-4823
▁จังหวัดสุ	-4824
สมเด็จพระเจ้า	-4825
สตูดิโออัลบั้ม	-4826
▁และแอนตาร์กติกา	-4827
รอส	-4828
จ่าย	-4829
สลับ	-4830
ทรีย์	-4831
เปลือก	-4832
ชื่อของ	-4833
เข้ากับ	-4834
นักฟุตบอล	-4835
อเมริการะ	-4836
อาศัยอยู่ใน	-4837
ถาม	-4838
เอช	-4839
▁se	-4840
ช่าง	-4841
ราชา	-4842
ิกซ์	-4843
ี้ยน	-4844
แบร์	-4845
นิเมะ	-4846
โดยมี	-4847
ในทาง	-4848
ร้อยละ	-4849
เทคนิค	-4850
▁ทุกวัน	-4851
ความสามารถ	-4852
เคลื่อนไหว	-4853
ย่อยออกเป็น	-4854
ของสหรัฐอเมริกา	-4855
tr	-4856
นอน	-4857
▁ap	-4858
▁ดวง	-4859
บูร์ก	-4860
โดวส์	-4861
ในแต่ละ	-4862
▁ใช้เป็น	-4863
ขึ้นเพื่อ	-4864
▁เหรียญทอง	-4865
ick	-4866
มัส	-4867
▁le	-4868
ปราบ	-4869
วงการ	-4870
เนชัน	-4871
เนียร์	-4872
เปรียบ	-4873
ถ่ายทอด	-4874
โด่งดัง	-4875
วันแรกเป็นวัน	-4876
โภค	-4877
ีกอง	-4878
ทัวร์	-4879
นาคาร	-4880
โรงแรม	-4881
ียอดขาย	-4882
▁เวิลด์	-4883
บิลบอร์ด	-4884
▁ในชาร์ต	-4885
คอนเสิร์ต	-4886
จัดจําหน่าย	-4887
ฝั่งแม่น้ํา	-4888
สุริยุปราคา	-4889
ที่วันแรกเป็นวัน	-4890
พิส	-4891
ยุบ	-4892
ลัย	-4893
เชล	-4894
▁me	-4895
▁ริ	-4896
ซะกะ	-4897
มีขน	-4898
▁แก้	-4899
ชายแดน	-4900
▁000.00	-4901
มีความหมาย	-4902
▁หลังจากที่	-4903
pl	-4904
กวี	-4905
คุ้ม	-4906
▁col	-4907
▁จะมี	-4908
จําลอง	-4909
ผิดชอบ	-4910
อยู่บน	-4911
▁เมล็ด	-4912
▁แคว้น	-4913
ความรัก	-4914
▁เป็นปี	-4915
ค่ายเพลง	-4916
▁ทั้งนี้	-4917
แอฟริกาใต้	-4918
ศาสตราจารย์	-4919
▁ตี	-4920
จีเรีย	-4921
มกราคม	-4922
เตรียม	-4923
▁(0000),	-4924
▁ทรงเป็น	-4925
▁เป็นอาหาร	-4926
▁และนักแสดง	-4927
ปี่	-4928
ผัส	-4929
บัตร	-4930
▁บรร	-4931
กีฬาว	-4932
เนปาล	-4933
▁0000–	-4934
น้ําเงิน	-4935
รับบทเป็น	-4936
ใกล้เคียง	-4937
are	-4938
ung	-4939
ดิบ	-4940
ลด์	-4941
เหง	-4942
โต้	-4943
▁ไร	-4944
นตัว	-4945
หม้อ	-4946
ธารณะ	-4947
าวิชา	-4948
นครศรี	-4949
สัญญากับ	-4950
การทํางาน	-4951
จรร	-4952
รุก	-4953
หนี	-4954
เสบ	-4955
▁at	-4956
▁บา	-4957
ling	-4958
เครน	-4959
▁นัด	-4960
ผู้มี	-4961
ของมัน	-4962
ชลบุรี	-4963
ถัดจาก	-4964
ประมุข	-4965
▁หน่วย	-4966
▁มีบุตร	-4967
▁เขาเป็น	-4968
ภาษากลุ่ม	-4969
▁อยู่ในวงศ์	-4970
▁มีจํานวนประชากร	-4971
ัฏ	-4972
กอก	-4973
ชาญ	-4974
▁ex	-4975
▁comp	-4976
▁คะแนน	-4977
▁เชื่อ	-4978
หน้านี้	-4979
ความร้อน	-4980
▁0000-00	-4981
กล้ามเนื้อ	-4982
ปกครองตนเอง	-4983
อายุไม่เกิน	-4984
hy	-4985
บิด	-4986
บูล	-4987
ายก	-4988
โกร	-4989
▁ii	-4990
ative	-4991
เตียน	-4992
เหล่า	-4993
เออร์	-4994
ไวรัส	-4995
ทางภาค	-4996
ฟิสิกส์	-4997
กันในชื่อ	-4998
เพิ่มเติม	-4999
ood	-5000
กระทํา	-5001
เทิร์น	-5002
▁โดยจะ	-5003
ทางตอนกลาง	-5004
▁championship	-5005
ata	-5006
วี่	-5007
โร่	-5008
ของพ	-5009
ตุรัส	-5010
▁เจมส์	-5011
กันยายน	-5012
ในอนาคต	-5013
▁system	-5014
รองชนะเลิศ	-5015
จักรพรรดินี	-5016
แหล่งมรดกโลก	-5017
▁เช่นเดียวกับ	-5018
กํากับภาพยนตร์	-5019
ฟุ	-5020
วช	-5021
ซีน	-5022
ฟัง	-5023
สัก	-5024
ไร้	-5025
ริยะ	-5026
หนาม	-5027
▁มิส	-5028
พิกัด	-5029
ภิกษุ	-5030
คู่กับ	-5031
เพื่อการ	-5032
ของบริษัท	-5033
จั	-5034
คอล	-5035
รวด	-5036
ะวะ	-5037
ไก่	-5038
กวาง	-5039
ิตติ	-5040
เทิล	-5041
▁ขับ	-5042
พาณิช	-5043
วัยวะ	-5044
ปรัชญา	-5045
มิวนิก	-5046
แอตแลนตา	-5047
ือนตุลาคม	-5048
เครือข่าย	-5049
▁โดยเริ่ม	-5050
รถไฟใต้ดิน	-5051
▁เมืองหลวง	-5052
สมเด็จพระราชินี	-5053
ude	-5054
ทาว	-5055
ราน	-5056
▁te	-5057
ซีดี	-5058
อร์น	-5059
ายนาม	-5060
เพลย์	-5061
การสอน	-5062
ที่ดิน	-5063
ที่นํา	-5064
▁ศูนย์	-5065
ขอนแก่น	-5066
ความคิด	-5067
▁ในชื่อ	-5068
มาตั้งแต่	-5069
▁เกาหลีใต้	-5070
อันดับสูงสุด	-5071
งู	-5072
ash	-5073
กวน	-5074
หอย	-5075
เบา	-5076
เปี	-5077
ชิมะ	-5078
ราคา	-5079
เวสต์	-5080
โยบาย	-5081
ใหญ่อ	-5082
▁love	-5083
มีนาคม	-5084
เรื่อย	-5085
▁อาศัย	-5086
ปริมณฑล	-5087
▁ประกาศ	-5088
▁มิวสิก	-5089
เข้าประกวด	-5090
เลือกตั้งสมาชิก	-5091
pe	-5092
ขลา	-5093
▁ac	-5094
▁ยา	-5095
▁เห	-5096
▁โป	-5097
มงคล	-5098
อล์ฟ	-5099
เชษฐ	-5100
มาของ	-5101
▁หมาย	-5102
เอ็กซ์	-5103
คัมภีร์	-5104
ในวงการ	-5105
ซิงเกิ้ล	-5106
▁เป็นรัฐ	-5107
▁สนามกีฬา	-5108
ตั้งอยู่ที่	-5109
▁อยู่ห่างจาก	-5110
ft	-5111
my	-5112
๊า	-5113
ชิป	-5114
ตึก	-5115
ถ้า	-5116
สิต	-5117
▁ซม	-5118
กรอบ	-5119
ตรอน	-5120
วีดี	-5121
แก้ไข	-5122
ไปได้	-5123
▁ขณะที่	-5124
จดทะเบียน	-5125
แห่งหนึ่ง	-5126
▁ประเทศอิตาลี	-5127
eng	-5128
ซาม	-5129
ซึม	-5130
ธิ์	-5131
สกี	-5132
โคน	-5133
โทะ	-5134
เซิน	-5135
พัฒน์	-5136
มอสโก	-5137
ยักษ์	-5138
ไปแล้ว	-5139
ชนิดนี้	-5140
รับผิดชอบ	-5141
ฤดูกาลที่	-5142
ดวงอาทิตย์	-5143
แห่งราชวงศ์	-5144
▁วิทยาศาสตร์	-5145
เปลี่ยนชื่อเป็น	-5146
กีฬาเอเชียนเกมส์	-5147
จอ	-5148
สภ	-5149
ชื่น	-5150
ิดส์	-5151
เวเน	-5152
▁เทพ	-5153
ทายาท	-5154
วิภาค	-5155
ในรอบ	-5156
▁ใกล้	-5157
พฤษภาคม	-5158
ด้านล่าง	-5159
เรียงตาม	-5160
▁นับเป็น	-5161
▁เพื่อให้	-5162
ของญี่ปุ่น	-5163
วอลเลย์บอลชาย	-5164
รด	-5165
สําร	-5166
▁โรค	-5167
รัมย์	-5168
สีกอง	-5169
ในงาน	-5170
คําร้อง	-5171
ใกล้กับ	-5172
▁กลีบดอก	-5173
ทํานองโดย	-5174
▁หมู่เกาะ	-5175
▁เป็นระบบ	-5176
▁ที่ประเทศ	-5177
เป็นเจ้าภาพ	-5178
อิเล็กทรอนิกส์	-5179
▁ฝ	-5180
ail	-5181
ดาบ	-5182
▁ปา	-5183
land	-5184
ปรึก	-5185
สิริ	-5186
▁กรี	-5187
▁บิน	-5188
ในแนว	-5189
▁นิ้ว	-5190
การผลิต	-5191
เอ็มเอ็ม	-5192
สังเคราะห์	-5193
โปรดิวเซอร์	-5194
ปุ	-5195
ere	-5196
มิด	-5197
สติ	-5198
▁กุ	-5199
▁ชิ	-5200
าร์ท	-5201
เสนา	-5202
ivers	-5203
สรรค์	-5204
จึงได้	-5205
ด้านบน	-5206
มาก่อน	-5207
▁แต่ละ	-5208
ขณะนั้น	-5209
ที่ชื่อ	-5210
โมเลกุล	-5211
▁แต่ไม่	-5212
▁เกิดที่	-5213
ส่วนประกอบ	-5214
ในตําแหน่ง	-5215
หน้าที่เป็น	-5216
แห่งสหประชาชาติ	-5217
ax	-5218
็ป	-5219
พรม	-5220
ี๋ย	-5221
เกะ	-5222
▁มู	-5223
หุ้น	-5224
แจ้ง	-5225
เคอร์	-5226
▁กล่าว	-5227
▁ต่อมาได้	-5228
▁พร้อมกับ	-5229
▁สํานักงาน	-5230
▁เป็นโรงเรียน	-5231
▁และได้รับการ	-5232
เป็นที่ตั้งของ	-5233
การจัดอันดับของ	-5234
ที่ใหญ่ที่สุดใน	-5235
▁พบกระจายพันธุ์	-5236
ข์	-5237
๋ง	-5238
ดูด	-5239
ด้า	-5240
ษย์	-5241
ี้ด	-5242
พนธ์	-5243
ล้าง	-5244
ฮั่น	-5245
เปรู	-5246
เอลา	-5247
▁อนุ	-5248
ราเอล	-5249
เทศกาล	-5250
ชั้นนํา	-5251
ลงไปทาง	-5252
อะนิเมะ	-5253
ตั้งเป็น	-5254
ด้วยอักษร	-5255
▁เป็นวงศ์	-5256
ternational	-5257
▁เป็นบริษัท	-5258
นวณ	-5259
ฮอล	-5260
▁my	-5261
▁ภู	-5262
rest	-5263
วัสดุ	-5264
▁กิโลก	-5265
จักรยาน	-5266
ภูเขาไฟ	-5267
ไปทางทิศ	-5268
เครื่องหมาย	-5269
▁ตั้งอยู่บน	-5270
▁กรุงปักกิ่ง	-5271
▁ประจําวันที่	-5272
ซัค	-5273
ฟลอ	-5274
เลค	-5275
▁โล	-5276
ular	-5277
มิติ	-5278
หุ่น	-5279
สุดของ	-5280
ในเวลา	-5281
ไปเป็น	-5282
สันหลัง	-5283
อายุได้	-5284
0)	-5285
พยพ	-5286
ลาส	-5287
อริ	-5288
ุษย	-5289
▁บู	-5290
ทอลิก	-5291
วิลล์	-5292
▁จอร์	-5293
ต่อการ	-5294
ถือว่า	-5295
ลําต้น	-5296
สาธารณะ	-5297
เคาน์ตี	-5298
วิดีโอเกม	-5299
ทางรถไฟสาย	-5300
ความสัมพันธ์	-5301
สีกองทัพบกช่อง	-5302
มหาสมุทรแปซิฟิก	-5303
▁มุ่งหน้าลงไปทาง	-5304
งก	-5305
รรศ	-5306
แคน	-5307
ชื้น	-5308
มารี	-5309
▁ภาพ	-5310
มวลชน	-5311
▁ออกดอก	-5312
▁ในฐานะ	-5313
เป้าหมาย	-5314
แพร่หลาย	-5315
จญ	-5316
ญจ	-5317
ite	-5318
งคล	-5319
ปูน	-5320
ลัน	-5321
หาส	-5322
▁ลา	-5323
ชิลี	-5324
ายนอก	-5325
สวยงาม	-5326
ในกรุง	-5327
คาทอลิก	-5328
ปากีสถาน	-5329
าน้ําจืด	-5330
▁แจ็กสัน	-5331
โดยบริษัท	-5332
ire	-5333
กซ์	-5334
อส์	-5335
ึ้ง	-5336
บ่อย	-5337
ยูโร	-5338
▁คอน	-5339
▁สัง	-5340
ธิดาใน	-5341
รายงาน	-5342
▁สาขาย	-5343
รวมทั้ง	-5344
น้ําทะเล	-5345
▁และต่อมา	-5346
บันทึกเสียง	-5347
เดือนตุลาคม	-5348
ii	-5349
ix	-5350
ตอ	-5351
ผา	-5352
▁u	-5353
ann	-5354
now	-5355
ียา	-5356
ฟื้น	-5357
เดย์	-5358
เรเค	-5359
▁สัน	-5360
เกณฑ์	-5361
เดียม	-5362
ถิ่นฐาน	-5363
ังก์ชัน	-5364
ราชสมบัติ	-5365
อีกมากมาย	-5366
ในอัลบั้ม	-5367
▁หรือที่รู้จัก	-5368
เหร	-5369
แทร	-5370
เช็ก	-5371
▁con	-5372
ทักษ์	-5373
ภรรยา	-5374
ละลาย	-5375
ว่าจะ	-5376
เซียม	-5377
โขทัย	-5378
ปกคลุม	-5379
สีม่วง	-5380
▁แต่มี	-5381
เห็นได้	-5382
มิถุนายน	-5383
พิพิธภัณฑ์	-5384
หลักทรัพย์	-5385
เมื่อเดือน	-5386
▁นอกจากนี้ยัง	-5387
ern	-5388
บี้	-5389
ปรี	-5390
ปวด	-5391
ผ่า	-5392
สนม	-5393
สโต	-5394
ุ๊ป	-5395
นามา	-5396
จังหวะ	-5397
ซุเอลา	-5398
มหาราช	-5399
▁มีพระ	-5400
▁สัตว์	-5401
ขนานที่	-5402
ตอนแรกวันที่	-5403
▁เป็นวงดนตรี	-5404
▁ประกอบไปด้วย	-5405
ฆา	-5406
ฉัน	-5407
โฟน	-5408
▁fl	-5409
สนิท	-5410
านัก	-5411
▁เกม	-5412
ในแถบ	-5413
ทีเรีย	-5414
เกิดจาก	-5415
▁ในอดีต	-5416
ที่เขียน	-5417
ต้นกําเนิด	-5418
ระหว่างการ	-5419
▁ตั้งแต่วันที่	-5420
การปกครองออกเป็น	-5421
▁เป็นนักแสดงหญิง	-5422
▁ฌ	-5423
▁๑	-5424
ดาล	-5425
ทน์	-5426
บิว	-5427
รษะ	-5428
เดส	-5429
ดีย์	-5430
▁ตรา	-5431
▁สวน	-5432
สะดวก	-5433
นี้ถูก	-5434
ภาษานี้	-5435
อันตราย	-5436
▁อุทยาน	-5437
เบอร์ลิน	-5438
▁อีกด้วย	-5439
▁และยังเป็น	-5440
ตําแหน่งกองกลาง	-5441
ในกรุงเทพมหานคร	-5442
▁สหรัฐอเมริการะ	-5443
ฏิ	-5444
รอด	-5445
ลอย	-5446
แกม	-5447
แคร	-5448
ตําร	-5449
ร้าว	-5450
ห่าง	-5451
▁สเต	-5452
▁อาร	-5453
▁เสีย	-5454
ย้ายไป	-5455
โกเลีย	-5456
▁พัฒนา	-5457
เป็นที่นิยม	-5458
พะ	-5459
แฝ	-5460
ไค	-5461
อเน	-5462
แวน	-5463
แอม	-5464
▁วา	-5465
▁นี่	-5466
ลังกา	-5467
ย่อว่า	-5468
กรกฎาคม	-5469
เท่ากัน	-5470
ของแต่ละ	-5471
โทรศัพท์	-5472
เซมเบิร์ก	-5473
เป็นนักแสดง	-5474
▁ที่จังหวัด	-5475
▁ประพันธ์เนื้อ	-5476
me	-5477
ฑา	-5478
จุก	-5479
ชิด	-5480
พูล	-5481
สลา	-5482
แลก	-5483
ย่อง	-5484
สะสม	-5485
ํารุง	-5486
ปราการ	-5487
อลลาร์	-5488
เขายัง	-5489
เมษายน	-5490
ความสูง	-5491
จัดเป็น	-5492
ประสิทธิ	-5493
ark	-5494
ica	-5495
ime	-5496
ร่ม	-5497
ิตะ	-5498
างค์	-5499
▁ยุค	-5500
ขันธ์	-5501
มาใช้	-5502
▁ห้อง	-5503
ไม่ใช่	-5504
คําสั่ง	-5505
▁หมู่ที่	-5506
▁ต่อมาในปี	-5507
▁ออสเตรเลีย	-5508
▁และวัฒนธรรม	-5509
ros	-5510
ริล	-5511
ฮาว	-5512
็อต	-5513
ย่าง	-5514
ัทธิ	-5515
แขนง	-5516
▁sch	-5517
จิตอล	-5518
มีดอก	-5519
ุทธิ์	-5520
▁list	-5521
กําแพง	-5522
ธงชาติ	-5523
ฟุตซอล	-5524
รองรับ	-5525
าละติน	-5526
▁อาหาร	-5527
▁ติดกับ	-5528
ฐานะเป็น	-5529
นักเรียน	-5530
ริยาภรณ์	-5531
เพื่อให้	-5532
ทางโทรทัศน์	-5533
▁จุฬาลงกรณ์	-5534
▁เป็นจํานวน	-5535
พระพุทธศาสนา	-5536
ใกล้เคียงกับ	-5537
ซับ	-5538
ิโอ	-5539
เซต	-5540
แคว	-5541
แทก	-5542
▁โพ	-5543
ญญาณ	-5544
▁เบล	-5545
▁โอล	-5546
ของตน	-5547
ปัญญา	-5548
เปี้ย	-5549
▁ครอบ	-5550
▁คาร์	-5551
หลุยส์	-5552
ในด้าน	-5553
เต็มที่	-5554
เป็นตัว	-5555
กองกําลัง	-5556
มีความยาว	-5557
หลายครั้ง	-5558
▁กิโลกรัม	-5559
จักรวรรดิโรมัน	-5560
ทางตะวันตกเฉียง	-5561
▁ในประเทศญี่ปุ่น	-5562
ัข	-5563
ชัก	-5564
บอส	-5565
ลิม	-5566
เฮฟ	-5567
ไข้	-5568
angu	-5569
olog	-5570
กุ้ง	-5571
ท้อน	-5572
แหวน	-5573
ซอฟท์	-5574
บรรเลง	-5575
ฟุตบอลทีมชาติ	-5576
▁สมเด็จพระราชินี	-5577
/00	-5578
unt	-5579
คิน	-5580
ดัม	-5581
นิส	-5582
ฝัง	-5583
มอล	-5584
คลาส	-5585
จิ๋ว	-5586
ทําร	-5587
นาซี	-5588
ประจ	-5589
ย็อง	-5590
รุ่ง	-5591
สรรพ	-5592
ัตช์	-5593
แก่อ	-5594
▁ทรู	-5595
▁สัญ	-5596
ทุกปี	-5597
ล้มลุก	-5598
ออสโตร	-5599
ได้ถึง	-5600
▁ในรัฐ	-5601
ต่างกัน	-5602
ท่าเรือ	-5603
เดิมว่า	-5604
อิสราเอล	-5605
และเมือง	-5606
โรแมนติก	-5607
▁จากอัลบั้ม	-5608
แสดงภาพยนตร์	-5609
▁เมืองซิดนีย์	-5610
wwe	-5611
สวา	-5612
อิล	-5613
▁ฟุ	-5614
ารัก	-5615
▁ครีบ	-5616
วาดอร์	-5617
สาวของ	-5618
เอกสาร	-5619
จัตุรัส	-5620
▁และผู้	-5621
ยูไนเต็ด	-5622
▁จัดขึ้น	-5623
มีพื้นที่	-5624
เบื้องต้น	-5625
รักษาประตู	-5626
อิสริยาภรณ์	-5627
ละครโทรทัศน์ไทย	-5628
รภ	-5629
าจ	-5630
ver	-5631
ดัก	-5632
โบล	-5633
▁we	-5634
▁ลู	-5635
▁อู	-5636
▁ไว	-5637
ขบวน	-5638
พริก	-5639
หลาน	-5640
▁00,	-5641
มาตรา	-5642
และพระ	-5643
▁ลําตัว	-5644
▁ที่เป็น	-5645
พระราชวัง	-5646
เอกลักษณ์	-5647
▁วิทยาลัย	-5648
ี้ดเอฟเอ็ม	-5649
แบ่งพื้นที่	-5650
เช่นเดียวกับ	-5651
คอง	-5652
อาน	-5653
ไล่	-5654
อพยพ	-5655
อุบล	-5656
ไมล์	-5657
▁ค้น	-5658
พบได้	-5659
พาร์ก	-5660
ออกซิ	-5661
▁ต้อง	-5662
พระชนม	-5663
อวัยวะ	-5664
▁ในเขต	-5665
ที่เกิดขึ้น	-5666
เกี่ยวกับการ	-5667
อุทยานแห่งชาติ	-5668
กบ	-5669
ศก	-5670
อญ	-5671
ฮก	-5672
ุภ	-5673
ใย	-5674
กัง	-5675
ซ่า	-5676
รํา	-5677
วิว	-5678
เบน	-5679
โซน	-5680
คีรี	-5681
ห้าม	-5682
แทรก	-5683
▁man	-5684
▁เกร	-5685
ก็คือ	-5686
เกลือ	-5687
▁ประช	-5688
▁สมรส	-5689
▁แกรม	-5690
พิธีกร	-5691
พาณิชย์	-5692
พิทักษ์	-5693
▁และใช้	-5694
กลางเมือง	-5695
ลิขสิทธิ์	-5696
เวเนซุเอลา	-5697
เรียนการสอน	-5698
การปกครองของ	-5699
ลักเซมเบิร์ก	-5700
▁ออกอากาศทาง	-5701
จนถึงปัจจุบัน	-5702
int	-5703
อรา	-5704
▁ad	-5705
ไฟล์	-5706
ําบล	-5707
กล้วย	-5708
ศีรษะ	-5709
เอกซ์	-5710
นางแบบ	-5711
ภาพของ	-5712
รถยนต์	-5713
อักเสบ	-5714
เกตบอล	-5715
▁ชาร์ต	-5716
ราชธานี	-5717
▁เส้นทาง	-5718
เสด็จสวรรคต	-5719
ox	-5720
กัว	-5721
ทิว	-5722
บวก	-5723
บํา	-5724
ปรก	-5725
มัด	-5726
ัญญ	-5727
▁กู	-5728
ence	-5729
คลับ	-5730
บีซี	-5731
พ่าย	-5732
ามาก	-5733
▁ทิศ	-5734
▁ไม้	-5735
ทางกาย	-5736
ยกย่อง	-5737
อมเบีย	-5738
▁อาคาร	-5739
ย่อยของ	-5740
▁จึงได้	-5741
พฤติกรรม	-5742
เพลงประกอบ	-5743
ออกอากาศทาง	-5744
▁เมืองแอตแลนตา	-5745
ฬา	-5746
กว่	-5747
รีม	-5748
▁ชิน	-5749
▁ดิน	-5750
▁พัน	-5751
พยากร	-5752
ิดีโอ	-5753
เธอร์	-5754
ในนาม	-5755
คมนาคม	-5756
ผ่านการ	-5757
ภาษาจีน	-5758
▁ของโลก	-5759
ส่วนตําบล	-5760
ในประเทศฝรั่งเศส	-5761
จก	-5762
ฟิ	-5763
กัล	-5764
ฝูง	-5765
เชน	-5766
เหว	-5767
▁อน	-5768
ถ้ํา	-5769
มีผู้	-5770
▁class	-5771
จริงว่า	-5772
รวดเร็ว	-5773
การเขียน	-5774
เคลื่อนที่	-5775
▁วิกิพีเดีย	-5776
▁เปิดให้บริการ	-5777
▁เป็นไม้ยืนต้น	-5778
บริหารส่วนตําบล	-5779
▁ประเทศนอร์เวย์	-5780
▁ในสหราชอาณาจักร	-5781
รง	-5782
๋อ	-5783
ยิน	-5784
าสม	-5785
แดด	-5786
▁สน	-5787
คลึง	-5788
ค่อย	-5789
พรหม	-5790
ศาสน	-5791
อยัง	-5792
อาวาส	-5793
ักดิ์	-5794
▁สถาป	-5795
ของนาย	-5796
ธนาคาร	-5797
เจดีย์	-5798
ขาธิการ	-5799
ตอนปลาย	-5800
ชนิดอื่น	-5801
จนกระทั่ง	-5802
ใหญ่เป็นอันดับ	-5803
คาย	-5804
คิม	-5805
ซอก	-5806
ดัช	-5807
พนม	-5808
เดร	-5809
▁ธน	-5810
▁แท	-5811
▁all	-5812
▁สอง	-5813
ชัยชนะ	-5814
ดอกไม้	-5815
▁ข้อมูล	-5816
▁โดยผู้	-5817
▁จัดตั้ง	-5818
ปฏิกิริยา	-5819
เหมือนกับ	-5820
ที่ก่อตั้ง	-5821
และนักแสดง	-5822
และปริมณฑล	-5823
ust	-5824
มณี	-5825
เสา	-5826
แมค	-5827
▁ไล	-5828
กราน	-5829
▁end	-5830
▁ขุน	-5831
▁สาว	-5832
▁แม่	-5833
บรูไน	-5834
ทริกซ์	-5835
สัมผัส	-5836
สาเหตุ	-5837
เปี้ยน	-5838
ication	-5839
ซ์แลนด์	-5840
ดูแลของ	-5841
▁ซึ่งจะ	-5842
ตัวเมือง	-5843
▁เปิดตัว	-5844
ความเชื่อ	-5845
จากโรงเรียน	-5846
▁และเป็นผู้	-5847
ism	-5848
คาว	-5849
ชวา	-5850
ทิล	-5851
วาส	-5852
ป้อม	-5853
าราย	-5854
คอร์ด	-5855
ศาสตร	-5856
เวลส์	-5857
เวลาส	-5858
โดยไม่	-5859
▁award	-5860
▁เชียง	-5861
ประกาศผล	-5862
▁เป็นเกาะ	-5863
บทประพันธ์ของ	-5864
▁เป็นซิงเกิลที่	-5865
มล	-5866
ฮอต	-5867
เสม	-5868
โยธ	-5869
ชายา	-5870
▁เอล	-5871
▁เรือ	-5872
ยูเครน	-5873
โดยตรง	-5874
ดิจิตอล	-5875
แนวเพลง	-5876
▁ในระบบ	-5877
ออกมาจาก	-5878
▁ที่กรุง	-5879
▁เป็นที่	-5880
▁เป็นเกม	-5881
ภาษาละติน	-5882
อํานวยการ	-5883
ชิงแชมป์เอเชีย	-5884
sk	-5885
ฉะ	-5886
ผม	-5887
กี้	-5888
ตะก	-5889
พัด	-5890
เรส	-5891
โนม	-5892
▁หอ	-5893
ทักษ	-5894
แย้ง	-5895
▁จีน	-5896
▁มือ	-5897
จญภัย	-5898
อีสาน	-5899
ปรึกษา	-5900
ภายนอก	-5901
สังเกต	-5902
▁กว้าง	-5903
คณะสงฆ์	-5904
ผู้ป่วย	-5905
วยปล้ํา	-5906
อ้างอิง	-5907
ได้ด้วย	-5908
▁เป็นชาว	-5909
▁เป็นวัด	-5910
กว้างขวาง	-5911
กุมภาพันธ์	-5912
▁ก่อตั้งในปี	-5913
กีฬาวอลเลย์บอล	-5914
ซิง	-5915
ทัว	-5916
สัช	-5917
อี้	-5918
ากะ	-5919
เชส	-5920
แมว	-5921
โซม	-5922
็อบ	-5923
▁ชู	-5924
ชกุน	-5925
ซ้ํา	-5926
ถั่ว	-5927
อยาก	-5928
ักดี	-5929
เนโร	-5930
▁แอล	-5931
ผลไม้	-5932
โรจน์	-5933
บริโภค	-5934
เกล้าฯ	-5935
เหตุผล	-5936
ในหลาย	-5937
▁wrest	-5938
ขบวนการ	-5939
เรเคิดส์	-5940
ของกองทัพ	-5941
องค์ประกอบ	-5942
เปลี่ยนเป็น	-5943
แห่งหนึ่งใน	-5944
▁ปัจจุบันได้	-5945
ภูมิภาคเอเชีย	-5946
ลากผ่านพื้นที่	-5947
fl	-5948
หิ	-5949
จิม	-5950
ถาว	-5951
บัส	-5952
▁พื	-5953
ก้าว	-5954
เลิฟ	-5955
โหลด	-5956
โอเด	-5957
▁บัน	-5958
▁อับ	-5959
ได้ดี	-5960
▁บาร์	-5961
▁เล่ม	-5962
วาเกีย	-5963
เชี่ยว	-5964
▁สะพาน	-5965
ของเพลง	-5966
เข้ารอบ	-5967
▁ที่ใช้	-5968
สมัยใหม่	-5969
แชมป์โลก	-5970
▁สมรสกับ	-5971
ที่ใช้ในการ	-5972
อําเภอเมือง	-5973
วอ	-5974
▁+	-5975
จัง	-5976
▁ดา	-5977
ัตรู	-5978
▁ชาย	-5979
▁เกล	-5980
▁แฟน	-5981
ปฏิรูป	-5982
เป็นคน	-5983
▁สมาคม	-5984
ยุกแห่ง	-5985
หน้ารูป	-5986
ได้ทั้ง	-5987
▁รูปแบบ	-5988
โซมาเลีย	-5989
▁แกรมมี่	-5990
ที่จัดทํา	-5991
ประถมศึกษา	-5992
ในประวัติศาสตร์	-5993
▁ภาพยนตร์เรื่อง	-5994
ng	-5995
จ้าง	-5996
ลงไป	-5997
▁ฮัน	-5998
คริสต	-5999
▁โดยใน	-6000
ในเครือ	-6001
ละครเวที	-6002
▁เป็นทีม	-6003
คล้ายคลึง	-6004
โคลอมเบีย	-6005
ระดับนานาชาติ	-6006
คุก	-6007
ทาร	-6008
บวช	-6009
สงบ	-6010
▁ed	-6011
▁no	-6012
.000	-6013
มหาด	-6014
▁ยกเว้น	-6015
,000,000	-6016
ส่งเสริม	-6017
เทียบกับ	-6018
ในเอเชีย	-6019
▁ความยาว	-6020
ที่ตั้งของ	-6021
ปกติสุรทิน	-6022
เครื่องมือ	-6023
▁ตามลําดับ	-6024
▁จัดแข่งขัน	-6025
อัลบั้มชุดที่	-6026
▁เป็นพืชในวงศ์	-6027
ฝา	-6028
00)	-6029
oph	-6030
ork	-6031
กรณ	-6032
เวช	-6033
แบค	-6034
ก็มี	-6035
▁พืช	-6036
▁ราก	-6037
คํานวณ	-6038
อารมณ์	-6039
เทศมณฑล	-6040
ภาษากรีก	-6041
▁สหพันธ์	-6042
ศึกษาธิการ	-6043
▁wrestling	-6044
▁กรุงเอเธนส์	-6045
▁international	-6046
ญจน	-6047
มติ	-6048
เนะ	-6049
แซน	-6050
▁gr	-6051
▁qu	-6052
▁so	-6053
ร่อง	-6054
สวัส	-6055
เขาส	-6056
▁sol	-6057
นิเทศ	-6058
ชาวจีน	-6059
▁langu	-6060
▁มีจุด	-6061
ที่ปรากฏ	-6062
เป็นเวลา	-6063
▁ทั้งหมด	-6064
▁ประชากร	-6065
การประกวด	-6066
▁ตั้งอยู่บริเวณ	-6067
สว	-6068
ดึง	-6069
ปัง	-6070
พ้น	-6071
ิตา	-6072
ญาติ	-6073
ปลอด	-6074
ลุ่ม	-6075
หลาบ	-6076
▁ซาน	-6077
▁สุข	-6078
-0000	-6079
ดัตช์	-6080
สงขลา	-6081
ัฟกาน	-6082
คือการ	-6083
ชุดที่	-6084
สีชมพู	-6085
เบิร์น	-6086
▁ของวง	-6087
ส่วนมาก	-6088
เล็กซาน	-6089
เหมาะสม	-6090
เป็นหลัก	-6091
บุรีรัมย์	-6092
สกอตแลนด์	-6093
สนามเหย้า	-6094
สายพันธุ์	-6095
ัฟกานิสถาน	-6096
▁มีรูปร่าง	-6097
▁เสียชีวิต	-6098
ขึ้นเมื่อปี	-6099
เทป	-6100
ฮาร์	-6101
ามัน	-6102
ริยยศ	-6103
สิงห์	-6104
สาธารณ	-6105
▁ก็ได้	-6106
อําเภอบ	-6107
▁และถูก	-6108
จัดการทีม	-6109
ครั้งแรกที่	-6110
เซ็นสัญญากับ	-6111
ระบบปฏิบัติการ	-6112
▁จบการศึกษาระดับ	-6113
▁พระบาทสมเด็จพระ	-6114
he	-6115
ool	-6116
ดาษ	-6117
ติช	-6118
ล่ม	-6119
โอม	-6120
เม็ด	-6121
▁ลีก	-6122
บรรดา	-6123
ระบอบ	-6124
รังสี	-6125
ติมอร์	-6126
บนเกาะ	-6127
ประมวล	-6128
อีกหลาย	-6129
ประชากรร	-6130
▁สัปดาห์	-6131
▁หนึ่งใน	-6132
ที่ทําให้	-6133
แตกต่างจาก	-6134
เจ้าหน้าที่	-6135
ของสาธารณรัฐ	-6136
ประเทศญี่ปุ่น	-6137
▁เริ่มออกอากาศ	-6138
yle	-6139
ซาว	-6140
นาค	-6141
มอญ	-6142
สวม	-6143
หุบ	-6144
เวส	-6145
▁คอม	-6146
โพธิ์	-6147
ตัวผู้	-6148
สิงหาคม	-6149
แห่งรัฐ	-6150
▁ต่อจาก	-6151
▁รองจาก	-6152
ประยุกต์	-6153
▁ซึ่งได้	-6154
▁ตีพิมพ์	-6155
▁และมีการ	-6156
ธรรมศาสตร์	-6157
ภาพยนตร์ไทย	-6158
บัญชีรายชื่อ	-6159
▁เป็นแม่น้ํา	-6160
เป็นอันดับที่	-6161
▁เป็นเพลงประกอบ	-6162
จาง	-6163
แพน	-6164
ไกร	-6165
ตุ้น	-6166
ปั้น	-6167
าม่า	-6168
คิวบา	-6169
นิยาม	-6170
มังกร	-6171
ภารกิจ	-6172
▁เหมือน	-6173
ติดเชื้อ	-6174
เชียงราย	-6175
▁เป็นงาน	-6176
อย่างยิ่ง	-6177
▁เป็นละคร	-6178
ความรู้สึก	-6179
ญ์	-6180
โห	-6181
ตาร	-6182
ออง	-6183
ะฮ์	-6184
ฬิกา	-6185
แบ็ก	-6186
โจโฉ	-6187
ของคน	-6188
อิรัก	-6189
รัฐสภา	-6190
ให้เห็น	-6191
▁กระจาย	-6192
วิศวกรรม	-6193
▁univers	-6194
การบริหาร	-6195
ตามลําดับ	-6196
เปอร์เซีย	-6197
ในพื้นที่	-6198
▁สําหรับประเทศ	-6199
▁เมืองบาร์เซโลนา	-6200
ba	-6201
แว	-6202
กาบ	-6203
วาท	-6204
เผา	-6205
แผง	-6206
▁"(	-6207
▁พร	-6208
ฝีมือ	-6209
▁อายุ	-6210
จาเนโร	-6211
จุลจอม	-6212
และได้	-6213
คาร์บอน	-6214
▁อังกฤษ	-6215
ชั่วคราว	-6216
านักแสดง	-6217
พฤศจิกายน	-6218
เซอร์เบีย	-6219
ที่เก่าแก่	-6220
▁ในจังหวัด	-6221
ตั้งชื่อตาม	-6222
นักมวยปล้ํา	-6223
เครื่องยนต์	-6224
แมนเชสเตอร์	-6225
▁เป็นสกุลของ	-6226
เกิดเมื่อวันที่	-6227
bl	-6228
อท	-6229
ึน	-6230
ไห	-6231
ame	-6232
ชี้	-6233
พูน	-6234
หนู	-6235
เพ็	-6236
วอร์	-6237
าราก	-6238
เพย์	-6239
ไกโด	-6240
▁ปรา	-6241
▁เบน	-6242
พบกับ	-6243
พันธรัฐ	-6244
▁หรือเรียก	-6245
ที่โรงเรียน	-6246
วิภาคศาสตร์	-6247
ได้รับเลือก	-6248
▁ประเทศรัสเซีย	-6249
านุกรมวิกิพีเดีย	-6250
be	-6251
bs	-6252
▁0"	-6253
▁ยุ	-6254
▁ส่ง	-6255
เลขที่	-6256
โอซะกะ	-6257
หรือไม่	-6258
สโลวาเกีย	-6259
เชี่ยวชาญ	-6260
ปากแม่น้ํา	-6261
มากที่สุดใน	-6262
งบ	-6263
ถี	-6264
ลพ	-6265
iki	-6266
ขี้	-6267
เทล	-6268
▁นะ	-6269
ยื่น	-6270
แพทย	-6271
▁ตัน	-6272
▁แสง	-6273
ทดสอบ	-6274
ในชุด	-6275
นิวเคล	-6276
เป็นไม้	-6277
เสียหาย	-6278
ต่ํากว่า	-6279
มาจากการ	-6280
▁ญี่ปุ่น	-6281
ไอซ์แลนด์	-6282
ที่มีลักษณะ	-6283
ประสิทธิภาพ	-6284
ที่จัดทําขึ้นใน	-6285
ซีก	-6286
ซุง	-6287
นาบ	-6288
ผืน	-6289
แนะ	-6290
โหม	-6291
เอมิ	-6292
▁โคล	-6293
▁ไหล	-6294
มีพระ	-6295
ริกอน	-6296
รินซ์	-6297
▁ข้าว	-6298
▁หลาย	-6299
▁แต่อ	-6300
เหนียว	-6301
▁ดํารง	-6302
▁ตระกูล	-6303
ตามปฏิทิน	-6304
ปลาสวยงาม	-6305
แหล่งน้ํา	-6306
สีน้ําเงิน	-6307
หลังจากที่	-6308
▁เป็นอักษร	-6309
▁เป็นเทศบาล	-6310
จากมหาวิทยาลัย	-6311
ult	-6312
คาล	-6313
ซัง	-6314
ลวด	-6315
หมอ	-6316
ายา	-6317
เวต	-6318
ไทร	-6319
๋อง	-6320
คารา	-6321
มหาส	-6322
ยูนิ	-6323
เมิน	-6324
โต๊ะ	-6325
▁beg	-6326
▁วัง	-6327
นตาซี	-6328
ศัตรู	-6329
หมื่น	-6330
เรียล	-6331
กระจุก	-6332
นับถือ	-6333
วิญญาณ	-6334
โรงงาน	-6335
ทรงเป็น	-6336
วัยรุ่น	-6337
เหรี่ยง	-6338
▁เชื่อม	-6339
▁อีกทั้ง	-6340
ภูมิศาสตร์	-6341
เนื้อเรื่อง	-6342
หลอดเลือดดํา	-6343
บทความมากกว่า	-6344
▁มีขนาดพื้นที่	-6345
▁นอกจากนี้ยังมี	-6346
""	-6347
ric	-6348
ดาร์	-6349
ากัส	-6350
▁new	-6351
▁อัต	-6352
▁อํา	-6353
▁เคน	-6354
เซิร์	-6355
ซีเรีย	-6356
ต้นแบบ	-6357
ยกเลิก	-6358
▁music	-6359
แบ่งเขต	-6360
หนึ่งที่	-6361
เพลงชาติ	-6362
ใหญ่อยู่	-6363
สมาชิกของ	-6364
▁มีความหมาย	-6365
▁สถานีโทรทัศน์	-6366
▁มหาสมุทรแปซิฟิก	-6367
ho	-6368
sc	-6369
yn	-6370
้ก	-6371
arl	-6372
ase	-6373
irl	-6374
ลุง	-6375
อับ	-6376
โปล	-6377
▁ag	-6378
▁คู	-6379
▁ทา	-6380
▁ปิ	-6381
▁พง	-6382
ales	-6383
ater	-6384
เพณี	-6385
▁มิน	-6386
น้ําตก	-6387
▁เวอร์	-6388
▁ทางตอน	-6389
น้อยกว่า	-6390
สมาชิกวง	-6391
ติดอันดับ	-6392
พระพุทธรูป	-6393
▁และสามารถ	-6394
ของพืชมีดอก	-6395
▁นักแต่งเพลง	-6396
▁ได้รับรางวัล	-6397
ตะวันตกเฉียงใต้	-6398
to	-6399
ฉก	-6400
อาด	-6401
ามิ	-6402
โดน	-6403
อุ่น	-6404
ุกรรม	-6405
▁ค่ํา	-6406
ยาวนาน	-6407
▁อาจจะ	-6408
▁อเมริ	-6409
คนเดียว	-6410
ริชาร์ด	-6411
▁ล้านปี	-6412
ว่ายน้ํา	-6413
ชาวอิตาลี	-6414
มองโกเลีย	-6415
ของแม่น้ํา	-6416
เนื้อเยื่อ	-6417
โอเดจาเนโร	-6418
▁เป็นพระราช	-6419
▁จัดการแข่งขัน	-6420
wa	-6421
คิง	-6422
ถอน	-6423
ผูก	-6424
ารุ	-6425
แลน	-6426
▁el	-6427
agon	-6428
ตกลง	-6429
ําระ	-6430
ปรกติ	-6431
รวมกัน	-6432
เทเชีย	-6433
เอาชนะ	-6434
แรงงาน	-6435
แสดงใน	-6436
ได้จาก	-6437
ตั้งตาม	-6438
รัชทายาท	-6439
อนุรักษ์	-6440
ในที่สุด	-6441
คลื่นวิทยุ	-6442
ขึ้นอยู่กับ	-6443
▁สิ้นพระชนม์	-6444
▁เป็นนักพากย์	-6445
▁และอยู่ก่อนหน้า	-6446
๋น	-6447
โคก	-6448
โดะ	-6449
tent	-6450
ผึ้ง	-6451
สนอง	-6452
สู่อ	-6453
อรี่	-6454
▁เทค	-6455
กระทบ	-6456
อนุชา	-6457
▁พิธี	-6458
▁สิริ	-6459
▁แอร์	-6460
นักงาน	-6461
โอรสใน	-6462
ต่างจาก	-6463
มหาดไทย	-6464
▁ตลอดจน	-6465
ใหญ่ที่สุด	-6466
▁เป็นตําบล	-6467
อัฟกานิสถาน	-6468
▁ราชอาณาจักร	-6469
เป็นจํานวนมาก	-6470
▁ปัจจุบันเป็น	-6471
au	-6472
ck	-6473
ถา	-6474
ขุด	-6475
ทริ	-6476
อัด	-6477
เนล	-6478
เฟน	-6479
เวศ	-6480
แอส	-6481
โก้	-6482
โงะ	-6483
▁gm	-6484
▁มุ	-6485
▁เศ	-6486
เจาะ	-6487
▁แบล	-6488
วุฒิส	-6489
▁part	-6490
ลงเล่น	-6491
เอมิเร	-6492
แน่นอน	-6493
▁เพียง	-6494
บาดเจ็บ	-6495
ระเบียบ	-6496
สุลต่าน	-6497
▁ทะเลสาบ	-6498
▁ประเทศมาเลเซีย	-6499
ท่อ	-6500
ลัม	-6501
แหง	-6502
กระบ	-6503
ก็จะ	-6504
ก้อน	-6505
ช็อน	-6506
ต่อม	-6507
ัตย์	-6508
▁med	-6509
▁ช่อ	-6510
▁ผัก	-6511
▁วัฒ	-6512
▁ผลิต	-6513
กระบอก	-6514
นิพนธ์	-6515
▁begin	-6516
ทําเป็น	-6517
▁ในภาษา	-6518
การรักษา	-6519
วิเคราะห์	-6520
▁สาขาย่อย	-6521
▁มีทั้งหมด	-6522
▁มีนักกีฬา	-6523
นิเทศศาสตร์	-6524
ปัจจุบันคือ	-6525
ที่แตกต่างกัน	-6526
มีบทความมากกว่า	-6527
ที่เป็นที่รู้จัก	-6528
ยอ	-6529
ene	-6530
orn	-6531
รัล	-6532
▁ธี	-6533
กล้า	-6534
นิติ	-6535
▁ข้อ	-6536
▁ค่าย	-6537
▁มีขน	-6538
สุทธิ์	-6539
เบียร์	-6540
เข้าฉาย	-6541
ในยุโรป	-6542
▁นี่คือ	-6543
▁เป็นวง	-6544
ช่วงเวลา	-6545
ต่างระดับ	-6546
ประจําการ	-6547
เลขาธิการ	-6548
รายละเอียด	-6549
▁ดําเนินการ	-6550
ชาวเกาหลีใต้	-6551
▁ได้ขึ้นทะเบียน	-6552
▁องค์การการศึกษา	-6553
de	-6554
รัญ	-6555
อดี	-6556
โนน	-6557
▁สิ	-6558
▁ฮา	-6559
port	-6560
ทราน	-6561
ฟลาย	-6562
▁ซัม	-6563
นัดดา	-6564
หายใจ	-6565
อาจมี	-6566
ินทร์	-6567
เจ้าน	-6568
โกสลา	-6569
▁best	-6570
นโยบาย	-6571
เอ็นเอ	-6572
ราชบุรี	-6573
สิ่งที่	-6574
พรรณบุรี	-6575
มียอดขาย	-6576
อิสริยยศ	-6577
ทศวรรษที่	-6578
▁กลุ่มดาว	-6579
พระเกียรติ	-6580
จําเป็นต้อง	-6581
ระดับน้ําทะเล	-6582
ามหาวิทยาลัยโลก	-6583
มวยสากลสมัครเล่น	-6584
๊ด	-6585
pro	-6586
ปัจ	-6587
สตา	-6588
หัก	-6589
อิก	-6590
ถาวร	-6591
สาวะ	-6592
▁ย่อ	-6593
▁แตก	-6594
clude	-6595
นุษย์	-6596
พร้าว	-6597
ุนไพร	-6598
เชษฐา	-6599
เวลาน	-6600
แบนด์	-6601
บํารุง	-6602
สเตชัน	-6603
อภิเษก	-6604
ได้ว่า	-6605
หลักคือ	-6606
เดือนที่	-6607
▁อําเภอส	-6608
โกสลาเวีย	-6609
▁นักเขียน	-6610
▁และยังมี	-6611
อุบลราชธานี	-6612
ได้รับความนิยม	-6613
ปน	-6614
ศล	-6615
ale	-6616
กรวม	-6617
▁ถือ	-6618
▁สตี	-6619
ลัทธิ	-6620
สีเทา	-6621
เจียง	-6622
เซาท์	-6623
ได้มี	-6624
ไฮโดร	-6625
▁ครอง	-6626
▁แม็ก	-6627
ทางทหาร	-6628
ออกไซด์	-6629
ัมพันธ์	-6630
เป็นแบบ	-6631
▁รัฐบาล	-6632
ตั้งแต่อ	-6633
ที่เรียก	-6634
กํากับของ	-6635
เจ้าพระยา	-6636
ครั้งเดียว	-6637
▁หม่อมเจ้า	-6638
เหรียญทองแดง	-6639
▁แห่งราชวงศ์	-6640
ที่มหาวิทยาลัย	-6641
วิทยาศาสตร์ว่า	-6642
▁ประเทศออสเตรีย	-6643
▁เมืองมีประชากร	-6644
คบ	-6645
สวย	-6646
eric	-6647
จมูก	-6648
จิ้น	-6649
ตานี	-6650
ท่อน	-6651
บริษ	-6652
มาลา	-6653
าราม	-6654
▁โคน	-6655
ปาล์ม	-6656
ิวะระ	-6657
▁นายก	-6658
▁เซ็น	-6659
บรรยาย	-6660
โปรตีน	-6661
▁000.0	-6662
include	-6663
ขัดแย้ง	-6664
ช่องแคบ	-6665
พื้นผิว	-6666
จอมมารดา	-6667
ฟังก์ชัน	-6668
เชื่อว่า	-6669
เกิดขึ้นใน	-6670
▁เรื่องราว	-6671
ถิ่นกําเนิด	-6672
ทางวัฒนธรรม	-6673
สถานที่ที่ได้รับ	-6674
</	-6675
ank	-6676
ock	-6677
ton	-6678
คูณ	-6679
ตาน	-6680
ทช์	-6681
วอน	-6682
วูด	-6683
อบี	-6684
เสก	-6685
แซม	-6686
แอค	-6687
้วม	-6688
▁ออ	-6689
ไรด์	-6690
▁ก่อ	-6691
▁คัน	-6692
▁สุน	-6693
สไตล์	-6694
ธรรมดา	-6695
▁เซอร์	-6696
กลางของ	-6697
นามาจาก	-6698
ผิวหนัง	-6699
ปรากฏตัว	-6700
โครเอเชีย	-6701
ประชากรราว	-6702
▁ในวงศ์ปลา	-6703
ทางทิศเหนือ	-6704
สําคัญในการ	-6705
หนังสือการ์ตูน	-6706
▁เป็นสโมสรฟุตบอล	-6707
ถี่	-6708
ทีฟ	-6709
ยิว	-6710
รัศ	-6711
เซอ	-6712
ริดา	-6713
เสริ	-6714
▁iso	-6715
▁บาท	-6716
คอมเม	-6717
สันติ	-6718
เมนท์	-6719
เรนซ์	-6720
เฮอร์	-6721
▁john	-6722
คิดค้น	-6723
ยอดขาย	-6724
อเมริก	-6725
ของเหลว	-6726
ธรรมราช	-6727
ออนไลน์	-6728
เข้ารับ	-6729
ใช้ชื่อ	-6730
▁เนื้อหา	-6731
▁เป็นถนน	-6732
พันธุกรรม	-6733
▁วิลเลียม	-6734
จากอัลบั้ม	-6735
ทางตะวันตก	-6736
▁ทวีปเอเชีย	-6737
▁จักรพรรดินี	-6738
▁ประเทศอังกฤษ	-6739
อิงประวัติศาสตร์	-6740
▁เป็นภาพยนตร์ไทย	-6741
บุน	-6742
▁ระ	-6743
บอร์	-6744
พลาส	-6745
ลงใน	-6746
ว่าน	-6747
สติก	-6748
▁จิน	-6749
▁สาม	-6750
▁โทร	-6751
ัปตัน	-6752
โบสถ์	-6753
ฟื้นฟู	-6754
ย้ายมา	-6755
▁เบอร์	-6756
คลาสสิก	-6757
จะมีการ	-6758
ไรเดอร์	-6759
ปริญญาโท	-6760
▁เป็นเขต	-6761
อาจหมายถึง	-6762
อิทธิพลจาก	-6763
สัตว์เลี้ยง	-6764
▁เป็นการ์ตูน	-6765
ขึ้นบัญชีรายชื่อ	-6766
ึม	-6767
ier	-6768
ขนน	-6769
ชวน	-6770
ตระ	-6771
โยง	-6772
ital	-6773
ซาเบ	-6774
ลิ่ง	-6775
ื่อม	-6776
แม็ก	-6777
▁[[0	-6778
▁รอย	-6779
edron	-6780
ที่มา	-6781
ฮินดู	-6782
▁ศิริ	-6783
สะท้อน	-6784
▁เอฟซี	-6785
ตัดสินใจ	-6786
tentative	-6787
ซิงเกิลที่	-6788
▁กําหนดแข่งขัน	-6789
ในอนาคตทั้งสิ้น	-6790
ที่เกี่ยวข้องกับ	-6791
/)	-6792
la	-6793
ps	-6794
๋า	-6795
กี่	-6796
ช้า	-6797
ซิก	-6798
นรี	-6799
ผัน	-6800
ลิป	-6801
วัช	-6802
เกน	-6803
▁ชล	-6804
บูชา	-6805
รักษ	-6806
ศิลา	-6807
โมนา	-6808
ไลท์	-6809
▁พิม	-6810
ition	-6811
จอร์จ	-6812
นอร์ท	-6813
ประเภ	-6814
สุนัข	-6815
ายได้	-6816
▁คอร์	-6817
จิวะระ	-6818
ตอนต้น	-6819
สิบสอง	-6820
▁ยังมี	-6821
ขึ้นจาก	-6822
ผ่านทาง	-6823
พูดภาษา	-6824
ส่วนผสม	-6825
แฟนตาซี	-6826
เวอร์ชัน	-6827
ของรัฐบาล	-6828
เอมิเรตส์	-6829
▁เดิมชื่อ	-6830
ตั้งอยู่บน	-6831
บางส่วนของ	-6832
ทางตะวันออก	-6833
▁ตัวอย่างเช่น	-6834
▁เพื่อพิจารณา	-6835
พรรคคอมมิวนิสต์	-6836
ผู้นําประเทศอื่น	-6837
wf	-6838
มด	-6839
ina	-6840
own	-6841
ดิต	-6842
ยับ	-6843
วัว	-6844
▁ตา	-6845
วยาว	-6846
หนี้	-6847
อาระ	-6848
▁นอก	-6849
ายการ	-6850
จิตรกร	-6851
ผ่านมา	-6852
พี่ชาย	-6853
▁คนต่อ	-6854
พื้นดิน	-6855
▁เอเชีย	-6856
▁โดยวัด	-6857
ในสงคราม	-6858
กํากับโดย	-6859
▁การศึกษา	-6860
▁ฝรั่งเศส	-6861
ราษฎร์ธานี	-6862
ออกได้เป็น	-6863
ได้ว่าเป็น	-6864
หัวหน้าพรรค	-6865
▁เส้นขนานที่	-6866
▁เป็นนักการเมือง	-6867
ฮู	-6868
ape	-6869
พาย	-6870
แผ่	-6871
▁เง	-6872
only	-6873
ฉายา	-6874
ร็อค	-6875
อะไร	-6876
▁รับ	-6877
▁เคล	-6878
▁เอช	-6879
▁แมน	-6880
ศิษย์	-6881
▁น้อง	-6882
▁อาณา	-6883
▁โครง	-6884
คุณภาพ	-6885
ดราม่า	-6886
ทรีออล	-6887
อุบัติ	-6888
▁enter	-6889
ของภาษา	-6890
ของระบบ	-6891
ประเพณี	-6892
▁ทางทิศ	-6893
ทวีปยุโรป	-6894
เหมือนกัน	-6895
แผ่นดินของ	-6896
ออกอากาศของ	-6897
ที่มีประชากร	-6898
▁ประเทศอินเดีย	-6899
ในสหราชอาณาจักร	-6900
";	-6901
ปัน	-6902
พิน	-6903
มป์	-6904
ล์ม	-6905
วดน	-6906
เซส	-6907
เต้	-6908
อ้วน	-6909
แขวน	-6910
แซ็ง	-6911
ฟิล์ม	-6912
มลายู	-6913
ราม่า	-6914
ฮิโระ	-6915
เจมส์	-6916
▁with	-6917
ตกแต่ง	-6918
ทิศทาง	-6919
ผจญภัย	-6920
รวมตัว	-6921
ติดตั้ง	-6922
▁และเคย	-6923
ดาราจักร	-6924
มหานิกาย	-6925
▁ทีมชาติ	-6926
▁มีสมาชิก	-6927
▁จากข้อมูล	-6928
พระพุทธเจ้า	-6929
อลลาร์สหรัฐ	-6930
▁เป็นตัวละครใน	-6931
ขีด	-6932
บิก	-6933
พอล	-6934
▁วร	-6935
▁ไข	-6936
ซเบก	-6937
บริด	-6938
วุฒิ	-6939
สกฤต	-6940
ารับ	-6941
ซิตี้	-6942
สนเทศ	-6943
ฮาวาย	-6944
เสริฐ	-6945
ในทะเล	-6946
▁เสด็จ	-6947
▁แชมป์	-6948
ชาวสเปน	-6949
ในลักษณะ	-6950
ทั่วประเทศ	-6951
ปลาน้ําจืด	-6952
▁ภายใต้การ	-6953
ชีวิตส่วนตัว	-6954
ลงเล่นให้กับ	-6955
เรื่องราวของ	-6956
▁ในประเทศพม่า	-6957
ตําแหน่งกองหลัง	-6958
▁อุทยานแห่งชาติ	-6959
ตระกูลภาษาออสโตร	-6960
ทางประวัติศาสตร์	-6961
ผ่	-6962
▁|	-6963
▁ง	-6964
ise	-6965
ริต	-6966
วอล	-6967
อัป	-6968
▁นี	-6969
tain	-6970
ผนัง	-6971
▁gre	-6972
▁ชอบ	-6973
บรรจบ	-6974
เรียว	-6975
โยธิน	-6976
▁รัตน	-6977
แทกทีม	-6978
กระตุ้น	-6979
ปลอดภัย	-6980
หรือการ	-6981
▁ราชรัฐ	-6982
▁แม้ว่า	-6983
▁ล้านบาท	-6984
▁และเพลง	-6985
คริสเตียน	-6986
พระบรมราช	-6987
▁โดยมีการ	-6988
ที่ต้องการ	-6989
ครั้งนี้เป็น	-6990
โง	-6991
ยาส	-6992
▁โฟ	-6993
uper	-6994
บรรพ	-6995
ผสาน	-6996
พัฒน	-6997
▁ณัฐ	-6998
▁พอล	-6999
▁ราว	-7000
เล็กๆ	-7001
▁ละคร	-7002
ครบรอบ	-7003
ต้นไม้	-7004
เกิดการ	-7005
ไปจนถึง	-7006
▁กระดูก	-7007
กองทัพบก	-7008
ตั้งชื่อ	-7009
มหาวิหาร	-7010
าระหว่าง	-7011
▁เจ้าของ	-7012
นครสวรรค์	-7013
หลายเรื่อง	-7014
▁จัดขึ้นใน	-7015
▁เป็นหน่วย	-7016
▁เป็นตัวแทน	-7017
เหรียญรางวัล	-7018
0,	-7019
oid	-7020
จาม	-7021
ตนา	-7022
เวก	-7023
แกะ	-7024
แบล	-7025
โขง	-7026
▁แถ	-7027
poly	-7028
ยั้ง	-7029
▁บุตร	-7030
▁พันธ	-7031
วางแผน	-7032
โมะโตะ	-7033
ปัสสาวะ	-7034
ยุคแห่ง	-7035
เรเนียน	-7036
แกรมมี่	-7037
▁(0,000	-7038
▁พวกเขา	-7039
ification	-7040
แผ่นดินไหว	-7041
แลกเปลี่ยน	-7042
▁ระหว่างปี	-7043
▁และมีประชากร	-7044
ทางตะวันออกเฉียง	-7045
af	-7046
ซาล	-7047
ทีน	-7048
ฮอป	-7049
เฟร	-7050
เลต	-7051
ใดๆ	-7052
▁ge	-7053
ทรรศ	-7054
สินธ	-7055
เทวี	-7056
เธอก	-7057
▁ศาล	-7058
มายัง	-7059
แดนซ์	-7060
▁รหัส	-7061
▁เอ็ด	-7062
ชายหาด	-7063
ชิงตัน	-7064
ภาคต่อ	-7065
มวยไทย	-7066
▁และจะ	-7067
ขั้นตอน	-7068
ผู้เป็น	-7069
สนามบิน	-7070
ไหลผ่าน	-7071
▁ประธาน	-7072
▁เธอได้	-7073
ศรีลังกา	-7074
เข้าไปใน	-7075
▁เป็นลูก	-7076
▁ชนิดกีฬา	-7077
โรงภาพยนตร์	-7078
▁หรือรู้จัก	-7079
▁ในตําแหน่ง	-7080
ที่มีขนาดใหญ่	-7081
ผู้รักษาประตู	-7082
ครั้งแรกเมื่อปี	-7083
ave	-7084
iam	-7085
ict	-7086
งส์	-7087
ซูล	-7088
ตับ	-7089
ปอด	-7090
สอด	-7091
อิม	-7092
ั๊ก	-7093
เลก	-7094
แอก	-7095
แอป	-7096
เทพี	-7097
ไนต์	-7098
▁เหน	-7099
▁แกร	-7100
ณรงค์	-7101
สะเกษ	-7102
งานกับ	-7103
ที่สี่	-7104
ที่เขา	-7105
นอกจาก	-7106
ภาคใต้	-7107
ให้ความ	-7108
▁ถึงแม้	-7109
▁ผู้ที่	-7110
คนสําคัญ	-7111
จอร์เจีย	-7112
▁สุลต่าน	-7113
▁อันเป็น	-7114
ศูนย์สูตร	-7115
จีเอ็มเอ็ม	-7116
ทางเศรษฐกิจ	-7117
ทางตอนเหนือของ	-7118
ิค	-7119
ile	-7120
กต์	-7121
กาง	-7122
มุน	-7123
ศาจ	-7124
แผล	-7125
▁กะ	-7126
▁แด	-7127
คลอด	-7128
คาเด	-7129
ซั่น	-7130
ตร้า	-7131
ทารก	-7132
สตัน	-7133
แปลก	-7134
ใช้น	-7135
ไนน์	-7136
▁จอม	-7137
พิธีก	-7138
สีส้ม	-7139
ู้จัก	-7140
เนียว	-7141
เภสัช	-7142
โอะกะ	-7143
ในที่	-7144
▁สยาม	-7145
ชุดนี้	-7146
ตะวันต	-7147
ถูกจัด	-7148
ปกป้อง	-7149
มาดริด	-7150
▁ดนตรี	-7151
▁ในไทย	-7152
ประกวดน	-7153
สถาปนิก	-7154
▁คือการ	-7155
ออกซิเจน	-7156
▁แต่เดิม	-7157
พระราชมารดา	-7158
ศาสนาคริสต์	-7159
▁อดีตสมาชิก	-7160
▁เป็นไม้พุ่ม	-7161
▁ดํารงตําแหน่ง	-7162
อันศักดิ์สิทธิ์	-7163
▁รัฐแคลิฟอร์เนีย	-7164
ฏาน	-7165
าตุ	-7166
เบร	-7167
▁dr	-7168
ครรภ	-7169
ปาเล	-7170
หนาน	-7171
หมาก	-7172
ัปโป	-7173
าร์ค	-7174
เมดิ	-7175
▁gro	-7176
▁ชิง	-7177
▁เลข	-7178
ในปีค	-7179
▁วิธี	-7180
กุหลาบ	-7181
ดับที่	-7182
ประโยค	-7183
สุขภาพ	-7184
แยกตัว	-7185
ในรุ่น	-7186
ในแคว้น	-7187
▁รายนาม	-7188
คือเมือง	-7189
มีสมาชิก	-7190
▁แอฟริกา	-7191
พระชนมายุ	-7192
แบคทีเรีย	-7193
แห่งนี้เป็น	-7194
โรมันคาทอลิก	-7195
ทําหน้าที่เป็น	-7196
ุช	-7197
ูร	-7198
ข้น	-7199
ดอง	-7200
ธิว	-7201
บาก	-7202
ฟอส	-7203
รุณ	-7204
รูน	-7205
เนา	-7206
▁หว	-7207
ค้าง	-7208
▁เอน	-7209
▁แปล	-7210
▁แมค	-7211
ction	-7212
สนธิส	-7213
▁หญิง	-7214
กลาเทศ	-7215
พระนาง	-7216
ใช้ทํา	-7217
▁วิทยา	-7218
▁แต่ใน	-7219
ถ่ายทํา	-7220
นนทบุรี	-7221
ปลายทาง	-7222
ปีเตอร์	-7223
เซอร์ไบ	-7224
เพลงฮิต	-7225
่ายน้ํา	-7226
ที่เหลือ	-7227
เรียนรู้	-7228
ดาวน์โหลด	-7229
▁มาเลเซีย	-7230
▁ออกเสียง	-7231
ที่เกิดจาก	-7232
เลี้ยงเป็น	-7233
่ว่าจะเป็น	-7234
ที่ดีที่สุด	-7235
สิ่งแวดล้อม	-7236
เชื่อมต่อกับ	-7237
จํานวนประชากร	-7238
ทางรถไฟสายใต้	-7239
▁จักรพรรดิโกะ	-7240
▁ประเทศเม็กซิโก	-7241
itt	-7242
oci	-7243
ome	-7244
ตู้	-7245
อโร	-7246
▁(/	-7247
▁ซะ	-7248
หลุม	-7249
โซโท	-7250
ไหม้	-7251
▁car	-7252
▁อัง	-7253
▁อิส	-7254
เอฟซี	-7255
เฮาส์	-7256
นั้นมี	-7257
าวงการ	-7258
เหยื่อ	-7259
▁พระเจ	-7260
▁สหภาพ	-7261
ออริกอน	-7262
▁อยุธยา	-7263
ขนาดกลาง	-7264
ของตนเอง	-7265
หลายแห่ง	-7266
▁พระพุทธ	-7267
เปี้ยนชิพ	-7268
ทวีปเอเชีย	-7269
ห้าเหลี่ยม	-7270
เซอร์ไบจาน	-7271
▁มีระยะทาง	-7272
▁เชียงใหม่	-7273
เครื่องดนตรี	-7274
เปิดให้บริการ	-7275
▁ประสูติเมื่อ	-7276
▁โดยวัดจากการ	-7277
ชั้นมัธยมศึกษา	-7278
▁บทประพันธ์โดย	-7279
▁อยู่ภายใต้การ	-7280
ลบ	-7281
ane	-7282
สิค	-7283
เซ่	-7284
โมน	-7285
▁op	-7286
ที่พ	-7287
นิธิ	-7288
ลงมา	-7289
▁สภา	-7290
ครรภ์	-7291
จะไม่	-7292
ทาวน์	-7293
ที่สถ	-7294
พิพาก	-7295
จุดตัด	-7296
ตัวเลข	-7297
ติดตาม	-7298
นี้ว่า	-7299
พรมแดน	-7300
าร์ติน	-7301
โนมัติ	-7302
ไม่นาน	-7303
▁ในยุค	-7304
ท้องที่	-7305
▁เนื่อง	-7306
กล่าวว่า	-7307
ด้านข้าง	-7308
ข้าราชการ	-7309
ที่ประเทศ	-7310
สิ้นสุดลง	-7311
เพิ่มขึ้น	-7312
มิวสิกวิดีโอ	-7313
▁มีลักษณะเป็น	-7314
ตง	-7315
ake	-7316
กุง	-7317
ทซ์	-7318
นวล	-7319
บัด	-7320
ลย์	-7321
สค์	-7322
เรล	-7323
ไฮ้	-7324
๊าซ	-7325
▁ไช	-7326
ฉิ่น	-7327
นั่น	-7328
ละติ	-7329
ล้วน	-7330
ิตี้	-7331
▁คิด	-7332
▁ซิล	-7333
▁บิล	-7334
ชาติน	-7335
เกล็ด	-7336
ในโลก	-7337
▁song	-7338
แฟชั่น	-7339
แรกคือ	-7340
ไมเคิล	-7341
ญจนบุรี	-7342
ตรวจสอบ	-7343
อาเซียน	-7344
อ่านว่า	-7345
เทพเจ้า	-7346
และภาษา	-7347
▁ประกอบ	-7348
ปทุมธานี	-7349
▁000-000	-7350
ของตัวเอง	-7351
▁แบ่งเป็น	-7352
แชมเปียนชิป	-7353
บัญชาการทหาร	-7354
▁กระจายพันธุ์	-7355
แห่งราชอาณาจักร	-7356
ley	-7357
oll	-7358
par	-7359
กาฬ	-7360
งก์	-7361
ติง	-7362
บลู	-7363
ผลิ	-7364
รอน	-7365
แลม	-7366
โรด	-7367
้วง	-7368
▁la	-7369
ซอร์	-7370
ซ็อง	-7371
ด่าน	-7372
เล็บ	-7373
ไทน์	-7374
คาซัค	-7375
ําหนด	-7376
▁ชาติ	-7377
▁นั่น	-7378
นิษฐาน	-7379
มองเห็น	-7380
อย่างดี	-7381
เข้าถึง	-7382
▁ที่ได้	-7383
▁ศิลปิน	-7384
การต่อสู้	-7385
ที่กําหนด	-7386
มอนทรีออล	-7387
เจ้าอาวาส	-7388
พระราชบิดา	-7389
onlyinclude	-7390
ในจักรพรรดิ	-7391
▁ซึ่งทําให้	-7392
ที่อยู่ถัดจาก	-7393
▁จัดแข่งขันที่	-7394
อาหรับเอมิเรตส์	-7395
ubl	-7396
คาน	-7397
พลี	-7398
สุล	-7399
▁it	-7400
▁ฮะ	-7401
กลัว	-7402
ดมิน	-7403
สมทบ	-7404
เท็น	-7405
เว้า	-7406
▁/><	-7407
▁art	-7408
▁คิง	-7409
▁อุป	-7410
ทักษะ	-7411
ทิพย์	-7412
บีเอส	-7413
ฟีฟ่า	-7414
▁วรรณ	-7415
▁เด็ก	-7416
-00.00	-7417
มั่นคง	-7418
มีขนาด	-7419
ศรีนคร	-7420
แนะนํา	-7421
โดเนีย	-7422
ทัวเนีย	-7423
ผสมผสาน	-7424
าศักดิ์	-7425
สารสนเทศ	-7426
อาระเบีย	-7427
▁ชื่อของ	-7428
▁language	-7429
กองทัพอากาศ	-7430
หลังจากนั้น	-7431
ในภาษาอังกฤษ	-7432
▁สุริยุปราคา	-7433
▁วิกิพีเดียภาษา	-7434
▁เป็นเครื่องบิน	-7435
dr	-7436
ดีน	-7437
วดี	-7438
▁us	-7439
▁กฎ	-7440
atom	-7441
กลาก	-7442
นิ้ว	-7443
มุสล	-7444
ร์รี	-7445
สมภพ	-7446
▁ปฏิ	-7447
▁โกล	-7448
▁โทะ	-7449
รัศมี	-7450
เคียว	-7451
▁แก้ว	-7452
ตอนที่	-7453
ทําจาก	-7454
นี้ยัง	-7455
ผสมกับ	-7456
ลพบุรี	-7457
เหมือง	-7458
โอเปีย	-7459
▁จอร์จ	-7460
▁บุคคล	-7461
วุฒิสภา	-7462
ี่ยงไฮ้	-7463
ใกล้ชิด	-7464
▁กําลัง	-7465
▁ทํานอง	-7466
ปลดปล่อย	-7467
แม่เหล็ก	-7468
▁สีเขียว	-7469
ของกรีนิช	-7470
ดวงจันทร์	-7471
บาสเกตบอล	-7472
ประกวดนาง	-7473
เซ็นเตอร์	-7474
ให้อยู่ใน	-7475
▁ชาร์ตท็อป	-7476
▁ที่ออกฉาย	-7477
กระดูกสันหลัง	-7478
▁ตั้งอยู่ในเขต	-7479
มีการเปลี่ยนแปลง	-7480
▁เป็นท่าอากาศยาน	-7481
▁?	-7482
iel	-7483
mon	-7484
ซ่ง	-7485
ริค	-7486
ลีน	-7487
เมา	-7488
ance	-7489
ล็อก	-7490
สรณ์	-7491
แก๊ส	-7492
▁ขนม	-7493
กีฬาส	-7494
ค้นหา	-7495
ซีริล	-7496
ผู้ชม	-7497
ฟอร์ม	-7498
▁chem	-7499
▁ภาวะ	-7500
คําแหง	-7501
บริวาร	-7502
บันดาล	-7503
รังสิต	-7504
▁พระนาง	-7505
กลิ่นหอม	-7506
จากเมือง	-7507
ศรีสะเกษ	-7508
แอร์ไลน์	-7509
▁ไปจนถึง	-7510
ของอังกฤษ	-7511
บริสุทธิ์	-7512
อัตโนมัติ	-7513
▁รวมไปถึง	-7514
ของวงดนตรี	-7515
เรื่องสั้น	-7516
ใหญ่อันดับ	-7517
มีความสามารถ	-7518
สิ่งก่อสร้าง	-7519
หลอดเลือดแดง	-7520
อียิปต์โบราณ	-7521
▁แบ่งออกเป็น	-7522
ตารางกิโลเมตร	-7523
▁เป็นสนามกีฬา	-7524
ics	-7525
ดิก	-7526
าลู	-7527
ืบท	-7528
เถา	-7529
▁ไก	-7530
ันท์	-7531
เต่า	-7532
▁อาก	-7533
กรณัม	-7534
ภักดี	-7535
มาถึง	-7536
วิวัฒ	-7537
ไปจาก	-7538
nowiki	-7539
กระดาษ	-7540
คคอร์ด	-7541
คุณค่า	-7542
ตามแนว	-7543
นามว่า	-7544
มุสลิม	-7545
อนุบาล	-7546
อุซเบก	-7547
▁หนึ่ง	-7548
ดมินตัน	-7549
ทางเดิน	-7550
บางชนิด	-7551
มีบทบาท	-7552
▁ดินแดน	-7553
ประมวลผล	-7554
ากัสการ์	-7555
เป็นบุตร	-7556
แทนเสียง	-7557
เกียรติยศ	-7558
เที่ยวบิน	-7559
▁หมายเหตุ	-7560
▁เข้าร่วม	-7561
▁ภาษากลุ่ม	-7562
ภาพยนตร์ที่	-7563
▁พระองค์ทรง	-7564
เตอร์เรเนียน	-7565
พระราชบัญญัติ	-7566
▁ตั้งอยู่ทางทิศ	-7567
no	-7568
ym	-7569
ลก	-7570
็ท	-7571
ชนี	-7572
ถอด	-7573
วัต	-7574
หมา	-7575
ิ้ง	-7576
เทก	-7577
แฝด	-7578
แอง	-7579
▁คี	-7580
▁แป	-7581
prin	-7582
นะงะ	-7583
หนวด	-7584
หมัด	-7585
หล่อ	-7586
ามติ	-7587
เด็น	-7588
เฮติ	-7589
▁0/0	-7590
▁ชัย	-7591
▁มอน	-7592
พูดใน	-7593
เอมอน	-7594
▁ช่วย	-7595
ตอเรีย	-7596
ประการ	-7597
รายได้	-7598
วิจิตร	-7599
หลายคน	-7600
▁คนที่	-7601
พ่ายแพ้	-7602
สระบุรี	-7603
หลักการ	-7604
อําเภอส	-7605
แต่งโดย	-7606
นักศึกษา	-7607
ภาคเหนือ	-7608
ในอังกฤษ	-7609
▁และความ	-7610
▁ในเครือ	-7611
หลายอย่าง	-7612
▁สร้างโดย	-7613
▁เป็นผลงาน	-7614
รับประทานได้	-7615
จอด	-7616
ิลา	-7617
▁บิ	-7618
บุคล	-7619
ภาษี	-7620
าวัน	-7621
้นท์	-7622
▁air	-7623
▁ทอม	-7624
▁ภาย	-7625
▁โอะ	-7626
จารึก	-7627
▁ทีวี	-7628
บรรทุก	-7629
รูปไข่	-7630
ร็อกโก	-7631
▁มิลลิ	-7632
▁เยอรม	-7633
คูเวอร์	-7634
ตําหนัก	-7635
พลเรือน	-7636
พิพากษา	-7637
ลูกด้วย	-7638
เปรี้ยว	-7639
แอนด์บี	-7640
ซีริลลิก	-7641
โมร็อกโก	-7642
เหรียญเงิน	-7643
เดียวกันกับ	-7644
▁จบการศึกษาจาก	-7645
โอลิมปิกฤดูหนาว	-7646
gen	-7647
นัม	-7648
บ่อ	-7649
พรา	-7650
ิมิ	-7651
เรด	-7652
▁di	-7653
▁mo	-7654
▁pe	-7655
คลัง	-7656
ดีเจ	-7657
หมิง	-7658
ชาร์ล	-7659
เขาก็	-7660
เข้าย	-7661
ผู้ชาย	-7662
ยืนยัน	-7663
อัสสัม	-7664
เดิร์น	-7665
ได้โดย	-7666
▁ปีแสง	-7667
ที่ต้อง	-7668
น้ําจืด	-7669
▁เป็นนก	-7670
จิตรกรรม	-7671
ประชามติ	-7672
▁อินเดีย	-7673
สร้างขึ้น	-7674
ส่วนหนึ่ง	-7675
กองทัพเรือ	-7676
ตะวันตกลาก	-7677
ออกอัลบั้ม	-7678
ไมโครซอฟท์	-7679
▁entertain	-7680
▁วันแรกของ	-7681
ศาสตรบัณฑิต	-7682
สนามเหย้าของ	-7683
ส่วนใหญ่เป็น	-7684
▁มีชื่อจริงว่า	-7685
▁องศาตะวันตกลาก	-7686
ขม	-7687
ุบ	-7688
ars	-7689
mer	-7690
คอส	-7691
ชํา	-7692
ย่า	-7693
สตี	-7694
หยา	-7695
ียู	-7696
เซะ	-7697
เลอ	-7698
▁wh	-7699
▁ขน	-7700
▁ชี	-7701
inal	-7702
ขนนก	-7703
ทัศน	-7704
ารวม	-7705
ื้อน	-7706
เฟีย	-7707
▁ซัน	-7708
▁วอล	-7709
▁โรง	-7710
การ์ด	-7711
พิการ	-7712
ภาควิ	-7713
ฮาร์ด	-7714
ืบทอด	-7715
▁girl	-7716
▁มารี	-7717
จันทน์	-7718
ัตตานี	-7719
เข้าชม	-7720
เนชั่น	-7721
เนื้อส	-7722
ที่ส่วน	-7723
แสดงถึง	-7724
ของสัตว์	-7725
ประเสริฐ	-7726
พื้นบ้าน	-7727
หน้านั้น	-7728
เตนสไตน์	-7729
ของประชากร	-7730
อุบัติเหตุ	-7731
เทศบาลเมือง	-7732
▁university	-7733
▁อําเภอบ้าน	-7734
▁ในชาร์ตของ	-7735
อําเภอข้างเคียง	-7736
▁และเป็นหนึ่งใน	-7737
▁ตั้งอยู่ห่างจาก	-7738
▁มีประชากรประมาณ	-7739
gl	-7740
ผง	-7741
enn	-7742
ius	-7743
org	-7744
คัส	-7745
ทัด	-7746
ธนู	-7747
นัส	-7748
มัล	-7749
เนต	-7750
ไผ่	-7751
คนโต	-7752
อยส์	-7753
าราล	-7754
▁des	-7755
▁กรด	-7756
ซาเบธ	-7757
ตูริน	-7758
นันท์	-7759
ใบไม้	-7760
ไขมัน	-7761
▁0–00	-7762
กลาโหม	-7763
ลวดลาย	-7764
ทั้งสาม	-7765
สุโขทัย	-7766
เข้ายึด	-7767
เป็นต้น	-7768
▁ยังเป็น	-7769
ที่สองของ	-7770
ที่ไม่ได้	-7771
สารประกอบ	-7772
เกษตรกรรม	-7773
เรื่องนี้	-7774
▁โรงพยาบาล	-7775
▁เมื่อเดือน	-7776
เข้าสู่วงการ	-7777
▁ได้เข้าร่วม	-7778
จากการแข่งขัน	-7779
▁ก่อตั้งเมื่อ	-7780
เหนือของจังหวัด	-7781
▁องศาตะวันตกของ	-7782
เมดิเตอร์เรเนียน	-7783
ชญ	-7784
คัม	-7785
จิง	-7786
นาฏ	-7787
รรถ	-7788
สละ	-7789
อัย	-7790
ฮอน	-7791
ิจฉ	-7792
ุกุ	-7793
ุลย	-7794
ูร์	-7795
เนอ	-7796
▁by	-7797
▁ศิ	-7798
▁สป	-7799
ames	-7800
ด่วน	-7801
ไลฟ์	-7802
▁แก่	-7803
บานอน	-7804
วอร์ด	-7805
ในรูป	-7806
▁ภูมิ	-7807
ทรงกลม	-7808
ทรรศน์	-7809
ทางเพศ	-7810
บีเรีย	-7811
ปกรณัม	-7812
ปานามา	-7813
▁ตะวัน	-7814
▁สีขาว	-7815
ขับร้อง	-7816
ผู้ครอง	-7817
อาจเป็น	-7818
เพลงของ	-7819
▁school	-7820
▁ช่อดอก	-7821
▁โดยมาก	-7822
ที่พบได้	-7823
นักเขียน	-7824
▁ตัวละคร	-7825
▁เขียนบท	-7826
มีชื่อว่า	-7827
าราลิมปิก	-7828
ปีในประเทศ	-7829
แต่งงานกับ	-7830
และจังหวัด	-7831
▁จึงทําให้	-7832
เศรษฐศาสตร์	-7833
▁ในภาพยนตร์	-7834
วยปล้ําอาชีพ	-7835
▁ซี้ดเอฟเอ็ม	-7836
▁เมืองลอนดอน	-7837
นครศรีธรรมราช	-7838
▁นางงามจักรวาล	-7839
su	-7840
ทง	-7841
วู	-7842
att	-7843
ญาณ	-7844
ลัด	-7845
เคว	-7846
▁im	-7847
▁sm	-7848
คาโก	-7849
ซะกิ	-7850
หลาด	-7851
หัตถ	-7852
าลัม	-7853
แล้ง	-7854
▁mag	-7855
▁rec	-7856
▁ชุม	-7857
▁เทว	-7858
ทุกคน	-7859
อยู่น	-7860
เจียน	-7861
โชกุน	-7862
▁ตลาด	-7863
▁ประธ	-7864
▁เพชร	-7865
กําจัด	-7866
มะเร็ง	-7867
รวมกับ	-7868
วางขาย	-7869
อักษรก	-7870
▁มักจะ	-7871
ทั้งคู่	-7872
ด้านเท่า	-7873
ผู้ฝึกสอน	-7874
▁0000–0000	-7875
▁ปีเดียวกัน	-7876
▁เป็นเดือนที่	-7877
ทางทิศตะวันออก	-7878
▁entertainment	-7879
▁ออกอากาศทางช่อง	-7880
so	-7881
ก้น	-7882
ซอย	-7883
มาต	-7884
ฮาน	-7885
ูกิ	-7886
เสถ	-7887
แลง	-7888
แอบ	-7889
enth	-7890
ream	-7891
ชนบท	-7892
บูร์	-7893
อดอล	-7894
เค็ม	-7895
เทรา	-7896
▁ค่า	-7897
▁ฟัน	-7898
/0000	-7899
พระเจ	-7900
ลงทุน	-7901
▁คลอง	-7902
ของจีน	-7903
น้ําใน	-7904
อุโบสถ	-7905
ที่ปลาย	-7906
▁ซึ่งใน	-7907
ทรัพยากร	-7908
เมทริกซ์	-7909
ของกระดูก	-7910
ลิทัวเนีย	-7911
สกุลหนึ่ง	-7912
▁และเมื่อ	-7913
▁โอลิมปิก	-7914
▁ในสังกัด	-7915
ดําเนินงาน	-7916
ที่จังหวัด	-7917
แวนคูเวอร์	-7918
▁มิลลิเมตร	-7919
▁มีหน้าที่	-7920
ภาษาญี่ปุ่น	-7921
เทศบาลตําบล	-7922
▁ในภาษาอังกฤษ	-7923
ey	-7924
ال	-7925
นัล	-7926
โรล	-7927
ไร่	-7928
นิวก	-7929
ผลัด	-7930
ัทยา	-7931
▁00°	-7932
▁ass	-7933
▁min	-7934
▁แพร	-7935
ensis	-7936
ชันษา	-7937
ทันที	-7938
ภูฏาน	-7939
เข้าม	-7940
เลสเต	-7941
กระบี่	-7942
ขึ้นชก	-7943
คําถาม	-7944
ทางใต้	-7945
บริติช	-7946
สินธุ์	-7947
เมอรูน	-7948
เสถียร	-7949
▁อินโด	-7950
วิชาชีพ	-7951
เปิดสอน	-7952
แท้จริง	-7953
▁ผู้นํา	-7954
ของสมาคม	-7955
หุ่นยนต์	-7956
เนชันแนล	-7957
เพชรบุรี	-7958
▁ด้วยการ	-7959
▁ประวัติ	-7960
▁หรือการ	-7961
คว้าแชมป์	-7962
สืบพันธุ์	-7963
อย่างน้อย	-7964
▁ครอบคลุม	-7965
▁วินโดวส์	-7966
▁ใบประกอบ	-7967
วิวัฒนาการ	-7968
เกียรติแก่	-7969
▁รับบทเป็น	-7970
เข้าด้วยกัน	-7971
ตําแหน่งกองหน้า	-7972
▁มีผู้พูดทั้งหมด	-7973
))	-7974
ek	-7975
col	-7976
ife	-7977
utc	-7978
กบฏ	-7979
ขระ	-7980
ดอย	-7981
ราฟ	-7982
ออต	-7983
าวี	-7984
ไหน	-7985
๊อป	-7986
ถัมภ	-7987
บาห์	-7988
มอริ	-7989
ลีกา	-7990
สิทธ	-7991
ารุส	-7992
เรย์	-7993
่มาก	-7994
▁โพร	-7995
▁โยะ	-7996
ประมง	-7997
ผู้คน	-7998
ระนาบ	-7999
แควร์	-8000
ของตัว	-8001
ควิเบก	-8002
ประกัน	-8003
โมนาโก	-8004
ตรงกลาง	-8005
นิวกินี	-8006
ปานกลาง	-8007
ยึดครอง	-8008
▁ออกแบบ	-8009
ธิโอเปีย	-8010
ผลบังคับ	-8011
สัญญาณไฟ	-8012
▁หนังสือ	-8013
รามคําแหง	-8014
สามารถใช้	-8015
ตรงข้ามกับ	-8016
หลังจากการ	-8017
ลิกเตนสไตน์	-8018
นี้ได้รับการ	-8019
▁เมืองมิวนิก	-8020
▁เป็นสารประกอบ	-8021
ยง	-8022
ศร	-8023
ana	-8024
fer	-8025
ชุก	-8026
นรา	-8027
นัย	-8028
พลา	-8029
อู่	-8030
แตน	-8031
โมส	-8032
โหว	-8033
▁ชน	-8034
▁ฟี	-8035
วัตร	-8036
หยวน	-8037
อร์ท	-8038
อ้อม	-8039
ฮอร์	-8040
ไทม์	-8041
▁day	-8042
การัง	-8043
ถัมภ์	-8044
ภิบาล	-8045
สวามี	-8046
โคลัม	-8047
▁team	-8048
▁ธรรม	-8049
▁เท่า	-8050
▁เว็บ	-8051
เสี่ยง	-8052
ใหญ่ใน	-8053
น่าสนใจ	-8054
ราเอมอน	-8055
สูญเสีย	-8056
เลบานอน	-8057
▁ฟุตซอล	-8058
▁หลุยส์	-8059
▁และอีก	-8060
ครอบครอง	-8061
นํามาใช้	-8062
▁โดยปกติ	-8063
▁โตเกียว	-8064
เอเชียติก	-8065
ของนักร้อง	-8066
มีส่วนร่วม	-8067
ก่อนหน้านี้	-8068
ทวีปแอฟริกา	-8069
เปรียบเทียบ	-8070
▁ประเทศพม่า	-8071
วัตถุประสงค์	-8072
อาเซอร์ไบจาน	-8073
▁ประธานาธิบดี	-8074
ตลาดหลักทรัพย์	-8075
ูบ	-8076
ose	-8077
arch	-8078
ควีน	-8079
ซีย์	-8080
ท้าว	-8081
ัตน์	-8082
แซ็ก	-8083
โพรง	-8084
▁จุล	-8085
▁สุด	-8086
กว่าง	-8087
มงกุฎ	-8088
ิจฉัย	-8089
▁play	-8090
▁ถ่าย	-8091
▁สภาพ	-8092
ดีวีดี	-8093
พระนคร	-8094
พระราม	-8095
ภูเก็ต	-8096
มีเดีย	-8097
วนิยาย	-8098
ายเป็น	-8099
เสมือน	-8100
▁เดวิด	-8101
ตัวเมีย	-8102
ยุคกลาง	-8103
ลิเวอร์	-8104
สกุลว่า	-8105
ิบเบียน	-8106
ที่ใช้ใน	-8107
พัฒนาการ	-8108
สาขาวิชา	-8109
สุรินทร์	-8110
ในอันดับ	-8111
▁ส่วนของ	-8112
ประเทศจีน	-8113
สูงสุดของ	-8114
ประจําชาติ	-8115
▁ซึ่งต่อมา	-8116
ประหารชีวิต	-8117
▁ขับร้องโดย	-8118
คล้ายคลึงกับ	-8119
การ์ตูนเรื่อง	-8120
▁เป็นนักเขียน	-8121
ชั้นนําอีกมากมาย	-8122
▁มหาสมุทรอินเดีย	-8123
ัซ	-8124
ืม	-8125
con	-8126
ins	-8127
red	-8128
ฝัก	-8129
วิท	-8130
หิต	-8131
เบะ	-8132
เมฆ	-8133
แพล	-8134
▁สก	-8135
ated	-8136
ซากิ	-8137
สรุป	-8138
อตต์	-8139
อานา	-8140
เกษม	-8141
เฟิน	-8142
โหลก	-8143
ไดโน	-8144
▁bro	-8145
▁mod	-8146
▁มาน	-8147
มากใน	-8148
ิปฮอป	-8149
เฮฟวี	-8150
โมงค์	-8151
ก็เป็น	-8152
อวอร์ด	-8153
แม่ทัพ	-8154
ได้ที่	-8155
ซื้อขาย	-8156
าวาเรีย	-8157
เขาเป็น	-8158
เล่าปี่	-8159
แก่กรรม	-8160
▁วิดีโอ	-8161
ชื่อเดิม	-8162
น้ําแข็ง	-8163
ศึกษาต่อ	-8164
กําหนดให้	-8165
บังกลาเทศ	-8166
อยู่ในช่วง	-8167
▁มีความสูง	-8168
ของฝรั่งเศส	-8169
ตั้งถิ่นฐาน	-8170
ที่เข้าร่วม	-8171
▁คณะกรรมการ	-8172
ทางตอนใต้ของ	-8173
เยอรมันตะวันตก	-8174
."	-8175
วุ	-8176
ก้า	-8177
ดส์	-8178
มิง	-8179
ิกะ	-8180
ิตี	-8181
เงา	-8182
แถว	-8183
แมส	-8184
แรน	-8185
anth	-8186
rans	-8187
ธรณี	-8188
มาก็	-8189
▁one	-8190
▁per	-8191
▁นี้	-8192
▁สิน	-8193
▁เดล	-8194
สั้นๆ	-8195
สีสัน	-8196
โมโซม	-8197
▁ther	-8198
▁ต่าง	-8199
ที่ยาว	-8200
มากถึง	-8201
▁อาการ	-8202
▁ไปยัง	-8203
ที่พบใน	-8204
นําเสนอ	-8205
พนักงาน	-8206
ภาคกลาง	-8207
ลูกทุ่ง	-8208
▁จํานาน	-8209
▁รูปทรง	-8210
▁ในรุ่น	-8211
▁ให้กับ	-8212
นั้นเป็น	-8213
▁กรมหลวง	-8214
▁ล้านชุด	-8215
▁สถานที่	-8216
▁national	-8217
▁ดยุกแห่ง	-8218
▁และเริ่ม	-8219
พระองค์ที่	-8220
วันอาทิตย์	-8221
ใช้ชื่อว่า	-8222
▁ฟุตบอลโลก	-8223
▁เป็นต้นมา	-8224
▁เพื่อเป็น	-8225
บริหารธุรกิจ	-8226
▁มีเมืองหลวง	-8227
ทางทิศตะวันตก	-8228
▁วันสุดท้ายของ	-8229
▁classification	-8230
▁เป็นรายการเพย์	-8231
cw	-8232
ans	-8233
คูล	-8234
จอง	-8235
ซุก	-8236
ยืม	-8237
อลา	-8238
ุระ	-8239
๊อก	-8240
กรอง	-8241
ปุ่ม	-8242
อล์ก	-8243
อาวุ	-8244
แดนต	-8245
▁นาม	-8246
▁ลิน	-8247
ตรฐาน	-8248
พังก์	-8249
สับสน	-8250
านนท์	-8251
าลีกา	-8252
ไปสู่	-8253
▁เล่า	-8254
▁แอนด์	-8255
ซับซ้อน	-8256
ตัวเป็น	-8257
ประหลาด	-8258
ฟลายเวท	-8259
สวัสดิ์	-8260
คนแรกของ	-8261
ปรัสเซีย	-8262
ในฤดูกาล	-8263
▁นิตยสาร	-8264
▁ใกล้กับ	-8265
คณะรัฐมนตรี	-8266
▁ก่อตั้งโดย	-8267
ประเทศแคนาดา	-8268
▁00.00-00.00	-8269
▁เข้าสู่วงการ	-8270
อย่างกว้างขวาง	-8271
เฉลิมพระเกียรติ	-8272
▁ประพันธ์คําร้อง	-8273
aj	-8274
pt	-8275
aut	-8276
พับ	-8277
มหญ	-8278
ลส์	-8279
แชน	-8280
ไคร	-8281
▁คิ	-8282
ปราก	-8283
ปลาก	-8284
มาลี	-8285
เช้า	-8286
เพ็ญ	-8287
โคโล	-8288
▁ลิง	-8289
จรรย์	-8290
มาลัย	-8291
ระลึก	-8292
ในไทย	-8293
▁000,	-8294
▁ชิ้น	-8295
▁หลวง	-8296
กระดับ	-8297
ที่ราบ	-8298
รู้สึก	-8299
เกิร์ล	-8300
ไม่กี่	-8301
▁คล้าย	-8302
▁เศรษฐ	-8303
▁เหนือ	-8304
ฟลอริดา	-8305
ล่มสลาย	-8306
▁ผู้ชนะ	-8307
ทับศัพท์	-8308
บันดาลใจ	-8309
วอชิงตัน	-8310
อักษรย่อ	-8311
อินทรีย์	-8312
▁เปลี่ยน	-8313
คาซัคสถาน	-8314
ติดต่อกัน	-8315
แอลจีเรีย	-8316
โปรดเกล้าฯ	-8317
▁ในอัลบั้ม	-8318
ทางการแพทย์	-8319
ยูโกสลาเวีย	-8320
ที่จัดขึ้นใน	-8321
ชิงแชมป์ยุโรป	-8322
▁เป็นตําแหน่ง	-8323
ครั้งแรกในวันที่	-8324
ชิงแชมป์แห่งชาติ	-8325
0%	-8326
ade	-8327
มาศ	-8328
ลัส	-8329
ศีล	-8330
▁ใส	-8331
ตะเพ	-8332
ตุ้ง	-8333
ผลึก	-8334
พลาด	-8335
ันต์	-8336
เมกา	-8337
โพลี	-8338
โฟร์	-8339
้ําร	-8340
ผลให้	-8341
มารวม	-8342
วรรคต	-8343
สมการ	-8344
สองคน	-8345
เตียว	-8346
โอเพน	-8347
็อกซ์	-8348
กุงะวะ	-8349
ต่อกับ	-8350
ธนบุรี	-8351
รุกวัย	-8352
อาวุโส	-8353
เขื่อน	-8354
เบเนีย	-8355
เสี้ยว	-8356
▁chart	-8357
▁ไมโคร	-8358
ศิลปากร	-8359
▁ปริญญา	-8360
▁ไทยลีก	-8361
คินพาร์ก	-8362
ด้านหลัง	-8363
ในการทํา	-8364
กาญจนบุรี	-8365
จัดอันดับ	-8366
ราชสํานัก	-8367
รุ่งเรือง	-8368
ลูกด้วยนม	-8369
อาจจะเป็น	-8370
▁จูเนียร์	-8371
▁ทางสถานี	-8372
▁เป็นสนาม	-8373
▁เมืองนี้	-8374
ลงประชามติ	-8375
▁และมีความ	-8376
▁ให้บริการ	-8377
พระอิสริยยศ	-8378
วรรณกรรมจีน	-8379
สมุทรปราการ	-8380
▁อัลบั้มนี้	-8381
เรื่องสามก๊ก	-8382
▁ชาวอเมริกัน	-8383
สืบราชบัลลังก์	-8384
▁ตราแผ่นดินของ	-8385
อันดับสูงสุดที่	-8386
gr	-8387
ลึ	-8388
ior	-8389
ล้อ	-8390
แมง	-8391
โชค	-8392
▁ตู	-8393
กั้น	-8394
นนาน	-8395
ปรัส	-8396
ลดลง	-8397
สยอง	-8398
หลุด	-8399
ื้อก	-8400
แค้น	-8401
ไม่อ	-8402
ไอโอ	-8403
▁ind	-8404
▁เปร	-8405
ember	-8406
ก็ถูก	-8407
วิทย์	-8408
ที่ยัง	-8409
ลําปาง	-8410
ฮกไกโด	-8411
เวิร์ค	-8412
▁เพิ่ม	-8413
ตะเพียน	-8414
ธิปัตย์	-8415
▁จันทร์	-8416
▁ปราสาท	-8417
▁สถาปนา	-8418
งบประมาณ	-8419
ชีววิทยา	-8420
ด้านหน้า	-8421
▁ริชาร์ด	-8422
มาของชื่อ	-8423
เมลเบิร์น	-8424
▁อาณาจักร	-8425
เอธิโอเปีย	-8426
ภาพยนตร์และ	-8427
▁สังกัดพรรค	-8428
เล็กซานเดอร์	-8429
โอลิมปิกสากล	-8430
▁ดังต่อไปนี้	-8431
▁แต่ปัจจุบัน	-8432
▁ประเทศสวีเดน	-8433
▁ปัจจุบันเล่น	-8434
▁ในประเทศกรีซ	-8435
วิกิพีเดียภาษา	-8436
▁ประเทศเวียดนาม	-8437
ca	-8438
cle	-8439
ery	-8440
ese	-8441
por	-8442
กูร	-8443
ถุง	-8444
บาว	-8445
บาศ	-8446
ฟส์	-8447
สัต	-8448
แพร	-8449
่าก	-8450
▁ตก	-8451
▁ไพ	-8452
หยาง	-8453
เดิล	-8454
▁nor	-8455
▁par	-8456
▁พ่อ	-8457
▁ฟัง	-8458
▁มวย	-8459
▁มหา	-8460
กุมาร	-8461
มีจุด	-8462
สโลวี	-8463
านิติ	-8464
▁เคาน	-8465
-0000)	-8466
บางกอก	-8467
ประชาส	-8468
พระบรม	-8469
ของพรรค	-8470
ผู้ใหญ่	-8471
รวมเพลง	-8472
▁เพื่อน	-8473
พัฒนาโดย	-8474
ทางทิศใต้	-8475
เดินทางไป	-8476
▁จึงมีการ	-8477
▁น้ําหนัก	-8478
ราชวงศ์ที่	-8479
อัลบั้มที่	-8480
▁ในระหว่าง	-8481
ของโรงเรียน	-8482
ชายฝั่งทะเล	-8483
มาดากัสการ์	-8484
เครื่องดื่ม	-8485
แผ่นดินใหญ่	-8486
นครศรีอยุธยา	-8487
▁ตั้งอยู่ริม	-8488
▁รอบคัดเลือก	-8489
หญิงยอดเยี่ยม	-8490
แห่งสาธารณรัฐ	-8491
▁จนถึงปัจจุบัน	-8492
▁ในการเลือกตั้ง	-8493
▁ก่อตั้งขึ้นในปี	-8494
bc	-8495
les	-8496
ree	-8497
ชาด	-8498
อัญ	-8499
ุมิ	-8500
เอม	-8501
แซก	-8502
โค้	-8503
▁em	-8504
▁เผ	-8505
ชาลา	-8506
ส่อง	-8507
เตีย	-8508
เร่ง	-8509
▁จิต	-8510
▁บุน	-8511
▁ใต้	-8512
ology	-8513
ก็ตาม	-8514
คองโก	-8515
ซอกใบ	-8516
ปีศาจ	-8517
พรรษา	-8518
ภูมิส	-8519
มหญิง	-8520
มอนเต	-8521
ุงคาม	-8522
▁ปกติ	-8523
ต่อกัน	-8524
ทั้งใน	-8525
มือถือ	-8526
อเรชัน	-8527
▁สิงห์	-8528
▁ได้มี	-8529
ฉายาว่า	-8530
บางแห่ง	-8531
สัญกรรม	-8532
เป็นลูก	-8533
เพลงดัง	-8534
แข็งแรง	-8535
ดาวเทียม	-8536
วินโดวส์	-8537
▁ซูเปอร์	-8538
▁สตูดิโอ	-8539
▁เจ้าฟ้า	-8540
ทรัพย์สิน	-8541
และประเทศ	-8542
▁ฟุจิวะระ	-8543
นักร้องนํา	-8544
แคริบเบียน	-8545
▁อยู่ในเขต	-8546
อุซเบกิสถาน	-8547
เจริญเติบโต	-8548
▁จากทั้งหมด	-8549
ที่อยู่อาศัย	-8550
ราชอิสริยาภรณ์	-8551
).	-8552
หฺ	-8553
กุฏ	-8554
ทิม	-8555
▁gl	-8556
form	-8557
john	-8558
utic	-8559
ร่วง	-8560
อุดร	-8561
ิร์ด	-8562
ีบรู	-8563
แคระ	-8564
ใต้น	-8565
▁กัล	-8566
▁ฐาน	-8567
▁พี่	-8568
▁เรา	-8569
ธิวาส	-8570
บางคน	-8571
ยุทธ์	-8572
สีทอง	-8573
แซรอส	-8574
ปัจจัย	-8575
เลี่ยง	-8576
โดยชาว	-8577
▁กรุ๊ป	-8578
▁ขอบใบ	-8579
▁ปอนด์	-8580
ทางเคมี	-8581
ภาควิชา	-8582
อีกชื่อ	-8583
เป็นพืช	-8584
กวางตุ้ง	-8585
ต่างชาติ	-8586
บาวาเรีย	-8587
บุคคลที่	-8588
แห่งความ	-8589
ได้เพียง	-8590
▁นักกีฬา	-8591
▁เคยเป็น	-8592
บอร์เนียว	-8593
เชื่อมโยง	-8594
เซี่ยงไฮ้	-8595
▁โรเบิร์ต	-8596
นิวเคลียร์	-8597
แพทยศาสตร์	-8598
▁0000-0000)	-8599
▁จบการศึกษา	-8600
▁มีสํานักงาน	-8601
▁ประเทศโปแลนด์	-8602
▁ใช้ชื่อสกุลว่า	-8603
aph	-8604
กุน	-8605
ขาม	-8606
ตัส	-8607
ธิต	-8608
บีช	-8609
▁cr	-8610
▁คง	-8611
▁ทู	-8612
▁ปก	-8613
▁๒๕	-8614
กราฟ	-8615
คีย์	-8616
ชาร์	-8617
บะระ	-8618
พารา	-8619
ลังก	-8620
อนุม	-8621
▁are	-8622
▁บรา	-8623
คล้อง	-8624
ปากกา	-8625
ะเร็ง	-8626
เคนยา	-8627
▁วิ่ง	-8628
กัปตัน	-8629
ถึงการ	-8630
ผู้ที่	-8631
รองจาก	-8632
เสื่อม	-8633
▁ค้นพบ	-8634
ตลอดกาล	-8635
ถ่ายภาพ	-8636
ธิดาของ	-8637
สมุนไพร	-8638
สุมาตรา	-8639
▁เป็นคน	-8640
คุ้มครอง	-8641
มีการใช้	-8642
▁ก่อนที่	-8643
▁โครงการ	-8644
สนุกเกอร์	-8645
ในการแสดง	-8646
ในรัชสมัย	-8647
▁chemical	-8648
อิเล็กตรอน	-8649
ได้รับความ	-8650
▁สัญลักษณ์	-8651
ซีดับเบิลยู	-8652
อาร์แอนด์บี	-8653
แก่อสัญกรรม	-8654
▁พิพิธภัณฑ์	-8655
ชื่อเดียวกัน	-8656
▁อยู่ระหว่าง	-8657
ที่ประกอบด้วย	-8658
สัญญาณไฟจราจร	-8659
กระทรวงมหาดไทย	-8660
▁เป็นวิดีโอเกม	-8661
any	-8662
mat	-8663
คัง	-8664
ฆาต	-8665
งอย	-8666
นาท	-8667
บาต	-8668
พาด	-8669
รีน	-8670
ศนา	-8671
ส์บ	-8672
เฟล	-8673
▁go	-8674
bert	-8675
inae	-8676
นี้น	-8677
บรรด	-8678
ูจน์	-8679
เฉิน	-8680
เทีย	-8681
ในบท	-8682
ไรน์	-8683
▁พิน	-8684
▁มูล	-8685
▁ริม	-8686
▁เอม	-8687
จิตใจ	-8688
พอร์ต	-8689
สะอาด	-8690
▁sing	-8691
anatom	-8692
hedron	-8693
ยอดเขา	-8694
ยี่สิบ	-8695
ส่งออก	-8696
หลังคา	-8697
▁solid	-8698
▁ภาษาม	-8699
ช่วยให้	-8700
นอกระบบ	-8701
วินิจฉัย	-8702
หลายหน้า	-8703
จากเรื่อง	-8704
ลักษณะของ	-8705
เฉลิมฉลอง	-8706
เซ็นสัญญา	-8707
▁ในรูปแบบ	-8708
anatomical	-8709
ประกาศข่าว	-8710
ประสบการณ์	-8711
พูดภาษานี้	-8712
ได้เข้าร่วม	-8713
▁ประเทศตุรกี	-8714
ที่เกิดจากการ	-8715
▁เป็นไม้ล้มลุก	-8716
iy	-8717
ดอ	-8718
ตั	-8719
กัส	-8720
ทอม	-8721
ศรั	-8722
แมก	-8723
โจร	-8724
▁gu	-8725
กานา	-8726
ดูโอ	-8727
โทนี	-8728
▁ตัด	-8729
จรรอบ	-8730
จากบท	-8731
จินดา	-8732
บรรลุ	-8733
ฮีบรู	-8734
เปล่า	-8735
เยอร์	-8736
เลียง	-8737
โปรโม	-8738
▁time	-8739
รูปทรง	-8740
ลูกโลก	-8741
ารายณ์	-8742
และรัฐ	-8743
▁ในงาน	-8744
ท้องฟ้า	-8745
น้องชาย	-8746
ปะการัง	-8747
องค์ชาย	-8748
ออฟเดอะ	-8749
เป็นจุด	-8750
สัตว์ป่า	-8751
ชนิดเดียว	-8752
เหล่านั้น	-8753
แอลเบเนีย	-8754
ในญี่ปุ่น	-8755
▁หรือภาษา	-8756
▁ในฤดูกาล	-8757
▁แฟนเทเชีย	-8758
▁ตรงกับวันที่	-8759
▁เป็นภาพยนตร์แนว	-8760
xt	-8761
rop	-8762
ute	-8763
ขี่	-8764
มืด	-8765
ายู	-8766
ิ้ม	-8767
เมต	-8768
▁ไบ	-8769
วิถี	-8770
ะโระ	-8771
เซ็ก	-8772
แนวน	-8773
▁met	-8774
▁ซัล	-8775
▁ซิน	-8776
▁บัว	-8777
▁ฟรี	-8778
ก็ยัง	-8779
ฟิลด์	-8780
ลงนาม	-8781
วินัย	-8782
เซตส์	-8783
เยเมน	-8784
▁มอร์	-8785
▁เวีย	-8786
นักบุญ	-8787
ผู้ชนะ	-8788
ไซปรัส	-8789
▁พิมพ์	-8790
ความถี่	-8791
ชั่วโมง	-8792
ประเมิน	-8793
▁คู่กับ	-8794
▁สุวรรณ	-8795
▁เธอยัง	-8796
▁และไม่	-8797
ทั่วไปใน	-8798
ยุติธรรม	-8799
อุรุกวัย	-8800
เป็นฝ่าย	-8801
▁น้ํามัน	-8802
▁โปรแกรม	-8803
เอกวาดอร์	-8804
แบ่งกลุ่ม	-8805
▁เท่านั้น	-8806
▁และเมือง	-8807
ก่อตั้งในปี	-8808
ในเวลาต่อมา	-8809
อย่างรวดเร็ว	-8810
▁เป็นเมืองท่า	-8811
▁รายชื่อประเทศ	-8812
พระนครศรีอยุธยา	-8813
▁จัดเมื่อวันที่	-8814
ของสหราชอาณาจักร	-8815
๊ค	-8816
min	-8817
กัม	-8818
ซาร	-8819
นอล	-8820
บาร	-8821
▁ec	-8822
▁ชม	-8823
▁ติ	-8824
กรีน	-8825
ก๊าซ	-8826
จุฬา	-8827
ซาชู	-8828
ดงาม	-8829
ถูกล	-8830
มะโน	-8831
แม่น	-8832
▁อัส	-8833
ซัปโป	-8834
บูรณะ	-8835
มานาน	-8836
ยากาศ	-8837
โนเบล	-8838
▁star	-8839
▁ทหาร	-8840
▁ธาตุ	-8841
▁พม่า	-8842
ตัวหนา	-8843
บริดจ์	-8844
ฟเวอร์	-8845
อนุกรม	-8846
อบอุ่น	-8847
เติร์ก	-8848
เวิร์ส	-8849
▁กลิ่น	-8850
▁ถึงปี	-8851
ทางทะเล	-8852
ผลกระทบ	-8853
มุขมณฑล	-8854
เป็นมัน	-8855
▁record	-8856
▁เป็นยา	-8857
▁เอิร์ล	-8858
ซิโดเนีย	-8859
ตลอดทั้ง	-8860
วิสุงคาม	-8861
เหนือและ	-8862
คริสตจักร	-8863
กันระหว่าง	-8864
ในช่วงปลาย	-8865
▁ประเทศลาว	-8866
ตามการรักษา	-8867
ประเภทหนึ่ง	-8868
มีคุณสมบัติ	-8869
ศาสนาอิสลาม	-8870
▁ซึ่งเป็นการ	-8871
▁เป็นนวนิยาย	-8872
ของการแข่งขัน	-8873
ทางแยกต่างระดับ	-8874
▁จัดขึ้นที่เมือง	-8875
▁เป็นมหาวิทยาลัย	-8876
พุ	-8877
็ส	-8878
ael	-8879
ple	-8880
urn	-8881
จอก	-8882
บึง	-8883
เศร	-8884
ator	-8885
line	-8886
ther	-8887
ฉัตร	-8888
พัทธ	-8889
ภัทร	-8890
หมี่	-8891
อกับ	-8892
อ่าง	-8893
เซย์	-8894
เบิก	-8895
เพรส	-8896
โน้ม	-8897
▁ครู	-8898
▁ฉาย	-8899
▁รัง	-8900
กลนคร	-8901
คล้ํา	-8902
ณุโลก	-8903
บาศก์	-8904
ลีวูด	-8905
เบรีย	-8906
ในป่า	-8907
▁ดารา	-8908
▁ร้าน	-8909
ตรงกัน	-8910
นําโดย	-8911
ุลตร้า	-8912
▁อัตรา	-8913
apeutic	-8914
ชาวบ้าน	-8915
ารากวัย	-8916
าวเวอร์	-8917
แยกเป็น	-8918
ได้ง่าย	-8919
▁จะเป็น	-8920
ชาวดัตช์	-8921
โครโมโซม	-8922
▁มาร์ติน	-8923
ซาชูเซตส์	-8924
เพื่อเป็น	-8925
แข่งขันใน	-8926
แผ่นเสียง	-8927
โคลัมเบีย	-8928
▁หลักสูตร	-8929
ขนส่งมวลชน	-8930
ปรากฏการณ์	-8931
อยู่ภายใต้	-8932
เลื่อนชั้น	-8933
แชมเปียนส์	-8934
ในการสร้าง	-8935
▁อย่างเช่น	-8936
▁ในรัชสมัย	-8937
ความต้องการ	-8938
แรงบันดาลใจ	-8939
▁ตั้งชื่อตาม	-8940
ทําการแข่งขัน	-8941
จัดจําหน่ายโดย	-8942
ได้รับตําแหน่ง	-8943
คณะสงฆ์มหานิกาย	-8944
ของประเทศญี่ปุ่น	-8945
โธ	-8946
๊บ	-8947
car	-8948
ilm	-8949
oss	-8950
ret	-8951
sch	-8952
กัก	-8953
ชุน	-8954
ทวี	-8955
สมณ	-8956
เขน	-8957
ited	-8958
vent	-8959
กะวะ	-8960
จิ้ง	-8961
ชิบะ	-8962
ซื่อ	-8963
นารี	-8964
ปุระ	-8965
ผู้น	-8966
ยก๊ก	-8967
สมุด	-8968
▁แรง	-8969
พบว่า	-8970
มารับ	-8971
มีค่า	-8972
ยูฟ่า	-8973
เจ้าก	-8974
เนโกร	-8975
เหง้า	-8976
▁comm	-8977
▁fran	-8978
▁มิติ	-8979
▁ในบท	-8980
กูเกิล	-8981
ของทีม	-8982
สารคดี	-8983
หุบเขา	-8984
อนุภาค	-8985
ารักษ์	-8986
แต่ไม่	-8987
ในน้ํา	-8988
▁group	-8989
▁ดูที่	-8990
▁ทฤษฎี	-8991
ขึ้นตาม	-8992
ความว่า	-8993
จอร์แดน	-8994
พระราชก	-8995
▁การใช้	-8996
▁ทํางาน	-8997
ประเภทยา	-8998
สําคัญใน	-8999
แคเมอรูน	-9000
▁เปิดสอน	-9001
▁เอเชียน	-9002
การใช้งาน	-9003
สเตอร์ดัม	-9004
เพื่อความ	-9005
เอเชียสาย	-9006
▁อินเตอร์	-9007
อักษรละติน	-9008
เชื้อเพลิง	-9009
ประชากรในปี	-9010
กีฬาแห่งชาติ	-9011
ลูกโลกทองคํา	-9012
▁therapeutic	-9013
ไปทางตะวันออก	-9014
▁นายกรัฐมนตรี	-9015
▁เป็นดาวเคราะห์	-9016
air	-9017
คลี	-9018
ปิต	-9019
ปีด	-9020
หนะ	-9021
ั้ว	-9022
เทร	-9023
▁af	-9024
▁ال	-9025
cess	-9026
คั่ง	-9027
ดิเร	-9028
ทรวิ	-9029
ผ่อน	-9030
สกัด	-9031
อาชญ	-9032
▁cle	-9033
▁ดัช	-9034
กงสุล	-9035
ินาที	-9036
เผือก	-9037
▁ฝ่าย	-9038
การทํา	-9039
ก่อการ	-9040
มีหลาย	-9041
รุกราน	-9042
ใช้กับ	-9043
▁กล้าม	-9044
▁สตาร์	-9045
▁เจริญ	-9046
▁เฉพาะ	-9047
▁เมอร์	-9048
ดิวิชัน	-9049
เบลารุส	-9050
▁ซีรีส์	-9051
▁อะคาเด	-9052
▁การ์ตูน	-9053
▁ตารางวา	-9054
▁ยุทธการ	-9055
ที่สุดคือ	-9056
ได้ประกาศ	-9057
พัฒนามาจาก	-9058
▁กลุ่มภาษา	-9059
ความผิดปกติ	-9060
ตามธรรมชาติ	-9061
ทรงหลายหน้า	-9062
นักแต่งเพลง	-9063
▁เป็นสมาชิก	-9064
▁เป็นบุตรของ	-9065
มีความหมายว่า	-9066
▁เขียนด้วยอักษร	-9067
▁เมืองแวนคูเวอร์	-9068
">	-9069
cr	-9070
แง	-9071
ชาล	-9072
มิช	-9073
ยิม	-9074
ร์น	-9075
าที	-9076
าสี	-9077
เกอ	-9078
เทอ	-9079
เลซ	-9080
โตน	-9081
โทน	-9082
▁en	-9083
กรับ	-9084
ย้อน	-9085
เขือ	-9086
แต่น	-9087
▁ศุภ	-9088
กรุ๊ป	-9089
ซาอุด	-9090
ติมาก	-9091
ถัดมา	-9092
มนุษย	-9093
หากิน	-9094
เซียส	-9095
โมเดล	-9096
▁will	-9097
erican	-9098
ตัวที่	-9099
ที่ว่า	-9100
นครปฐม	-9101
ผลัดใบ	-9102
สืบทอด	-9103
เชียร์	-9104
เอาไว้	-9105
ไม่ให้	-9106
กระเพาะ	-9107
น้องสาว	-9108
สํามะโน	-9109
▁มีทั้ง	-9110
ลาออกจาก	-9111
ศรีนคริน	-9112
เป็นเส้น	-9113
ไนจีเรีย	-9114
ศาสนาพุทธ	-9115
สูญพันธุ์	-9116
▁เป็นช่อง	-9117
▁ในรายการ	-9118
ที่โดดเด่น	-9119
ได้สําเร็จ	-9120
ครั้งแรกโดย	-9121
▁ขณะพระชนม์	-9122
▁ซึ่งสามารถ	-9123
▁เป็นฟาโรห์	-9124
▁เป็นเพลงที่	-9125
▁ในประเทศลาว	-9126
เต็มที่ประมาณ	-9127
จําแนกประเภทยา	-9128
▁มีถิ่นกําเนิด	-9129
▁สมเด็จพระเจ้า	-9130
▁สําเร็จการศึกษา	-9131
()	-9132
ky	-9133
ขี	-9134
str	-9135
ซุป	-9136
นิง	-9137
บ่ง	-9138
รรค	-9139
สัด	-9140
แจก	-9141
โรส	-9142
▁jr	-9143
ควาย	-9144
ตรัง	-9145
หมณ์	-9146
หมัก	-9147
เค้า	-9148
แร็ป	-9149
▁act	-9150
▁top	-9151
▁คาด	-9152
▁เดน	-9153
ชุมพร	-9154
ตัวไป	-9155
หายาก	-9156
เดือด	-9157
ในพระ	-9158
▁กรีน	-9159
ชิคาโก	-9160
ทีมชาย	-9161
ยูนนาน	-9162
อธิการ	-9163
โดยรวม	-9164
▁รับบท	-9165
ปัตตานี	-9166
พิสูจน์	-9167
สูงกว่า	-9168
เสนาบดี	-9169
้อยกว่า	-9170
ด้วยความ	-9171
เชิงเทรา	-9172
เหนือจาก	-9173
สร้างความ	-9174
หนึ่งร้อย	-9175
อักษรกรีก	-9176
เป็นกลุ่ม	-9177
ในขณะนั้น	-9178
▁เวียดนาม	-9179
เฮฟวีเมทัล	-9180
▁โครงสร้าง	-9181
อยู่ระหว่าง	-9182
ในประเทศจีน	-9183
▁อําเภอหนอง	-9184
▁เขาเป็นผู้	-9185
▁จังหวัดน่าน	-9186
จักรพรรดิแห่ง	-9187
ทางตะวันตกของ	-9188
หลักของจังหวัด	-9189
▁ฟุตบอลทีมชาติ	-9190
▁เป็นศูนย์กลาง	-9191
▁ด้านล่างนี้เป็น	-9192
".	-9193
du	-9194
lo	-9195
าญ	-9196
ker	-9197
uro	-9198
กู้	-9199
ดรา	-9200
บัม	-9201
รษณ	-9202
รุค	-9203
ันท	-9204
เถร	-9205
โรก	-9206
▁รส	-9207
ดิจิ	-9208
ตรัส	-9209
บาลี	-9210
ย็อน	-9211
รีย์	-9212
ังกร	-9213
าวด์	-9214
เวนต	-9215
▁ดิส	-9216
ision	-9217
ซามัว	-9218
มอลตา	-9219
สมควร	-9220
สีฟ้า	-9221
เมโทร	-9222
ไอริช	-9223
้น้ํา	-9224
▁ออร์	-9225
▁เงิน	-9226
กันได้	-9227
ของดาว	-9228
งานโดย	-9229
ศตวรรษ	-9230
▁คาร์ล	-9231
▁เพลย์	-9232
▁และบท	-9233
บริษัทร	-9234
ัศจรรย์	-9235
เต็มดวง	-9236
▁ธงชาติ	-9237
▁โดยไม่	-9238
ติดชาร์ต	-9239
ประกวดมิส	-9240
ฟุตบอลลีก	-9241
สัตว์น้ํา	-9242
ในซีเกมส์	-9243
ในภูมิภาค	-9244
เนื้อสัตว์	-9245
▁อันดับแรก	-9246
▁พระองค์เป็น	-9247
อย่างต่อเนื่อง	-9248
▁จังหวัดขอนแก่น	-9249
▁ตั้งอยู่เลขที่	-9250
บด	-9251
เณ	-9252
ler	-9253
ฮอก	-9254
เนน	-9255
▁up	-9256
rist	-9257
work	-9258
ต่าย	-9259
ฟราน	-9260
โซโล	-9261
▁พูด	-9262
▁ลาว	-9263
▁หิน	-9264
▁แคล	-9265
กรุ่น	-9266
ตํารา	-9267
ที่สน	-9268
มิได้	-9269
หร่าย	-9270
เนียล	-9271
ไปที่	-9272
้วนํา	-9273
▁cont	-9274
▁from	-9275
▁กลับ	-9276
กระสุน	-9277
กาตาร์	-9278
คนอื่น	-9279
บริเตน	-9280
มุมมอง	-9281
ยกเว้น	-9282
เวิร์ก	-9283
▁มีค่า	-9284
▁สาขาม	-9285
▁หัวใจ	-9286
▁ในนาม	-9287
ที่ผลิต	-9288
ที่สนาม	-9289
นาเมนต์	-9290
สายหลัก	-9291
เข็มขัด	-9292
▁ที่ถูก	-9293
▁รู้จัก	-9294
▁ไม่ได้	-9295
กว่างโจว	-9296
ปารากวัย	-9297
▁เธอเป็น	-9298
ศรีอยุธยา	-9299
ในพระเจ้า	-9300
▁สีเหลือง	-9301
polyhedron	-9302
ญี่ปุ่นโดย	-9303
พาราลิมปิก	-9304
▁เป็นสัตว์	-9305
▁ทําให้เกิด	-9306
▁หลังจากการ	-9307
▁และสิ้นสุด	-9308
อัมสเตอร์ดัม	-9309
▁เป็นเมืองใน	-9310
▁โปรดิวเซอร์	-9311
พระนามเดิมว่า	-9312
เป็นศูนย์กลาง	-9313
▁มีประชากรราว	-9314
▁ผลิตโดยบริษัท	-9315
ละครโทรทัศน์แนว	-9316
ในภาพยนตร์เรื่อง	-9317
ta	-9318
tv	-9319
ara	-9320
ild	-9321
ual	-9322
กอฮ	-9323
จรด	-9324
ดุส	-9325
ตัง	-9326
ทิง	-9327
ลิล	-9328
ฮับ	-9329
เกง	-9330
โอง	-9331
▁คอ	-9332
กรวย	-9333
ค้าน	-9334
พอใจ	-9335
ฟวี่	-9336
วัตถ	-9337
่มัก	-9338
▁บอย	-9339
▁อิล	-9340
ement	-9341
การาก	-9342
สุนทร	-9343
สุภาพ	-9344
ารคาม	-9345
แบร์ก	-9346
ไปกับ	-9347
▁คริส	-9348
▁โปรด	-9349
กะโหลก	-9350
กันและ	-9351
ขับไล่	-9352
ขาคณิต	-9353
ทรงตัน	-9354
ประจวบ	-9355
สินทร์	-9356
สี่แยก	-9357
▁เครือ	-9358
▁เรียบ	-9359
พบได้ใน	-9360
สิ่งของ	-9361
เปิดเผย	-9362
ได้หลาย	-9363
▁เขาเคย	-9364
▁โปรดัก	-9365
ชานเมือง	-9366
นราธิวาส	-9367
มีอํานาจ	-9368
หยุดรถไฟ	-9369
เป็นชื่อ	-9370
▁ซึ่งใช้	-9371
▁รูปร่าง	-9372
▁และอดีต	-9373
ฐานข้อมูล	-9374
▁กล่าวคือ	-9375
▁ความหมาย	-9376
▁ในซีรีส์	-9377
▁ในเรื่อง	-9378
ในครั้งนี้	-9379
▁กรุงปารีส	-9380
ดอลลาร์สหรัฐ	-9381
การแข่งขันกีฬ	-9382
นํามาสร้างเป็น	-9383
▁เป็นพืชในสกุล	-9384
bur	-9385
cer	-9386
ext	-9387
กอน	-9388
คอฟ	-9389
ซาง	-9390
ฟอง	-9391
หลบ	-9392
ฮาม	-9393
ัจฉ	-9394
เจอ	-9395
เปา	-9396
แกล	-9397
โอด	-9398
่ห์	-9399
▁—)	-9400
ower	-9401
กุระ	-9402
นตาม	-9403
ศาลา	-9404
สะเท	-9405
สเตต	-9406
หลับ	-9407
ี๋ยน	-9408
แจ๊ส	-9409
โลว์	-9410
ไลต์	-9411
▁cor	-9412
▁สุก	-9413
▁โคะ	-9414
กริยา	-9415
นั้นๆ	-9416
ออตโต	-9417
ิเวีย	-9418
▁เรย์	-9419
จัดงาน	-9420
ติดกัน	-9421
มากนัก	-9422
ยังได้	-9423
ราชรัฐ	-9424
ฮิปฮอป	-9425
เธอได้	-9426
ถูกต้อง	-9427
ที่แสดง	-9428
เป็นดอก	-9429
▁จัดโดย	-9430
▁แกรนด์	-9431
▁ได้ถูก	-9432
กล้วยไม้	-9433
ความจริง	-9434
วันเสาร์	-9435
เดินเรือ	-9436
▁ทั้งสอง	-9437
▁องค์ชาย	-9438
ของพวกเขา	-9439
เทพปกรณัม	-9440
เปลี่ยนไป	-9441
ในอินเดีย	-9442
▁กษัตริย์	-9443
▁ดยุคแห่ง	-9444
▁อําเภอบาง	-9445
ตั้งตามชื่อ	-9446
▁เป็นประธาน	-9447
ที่สําคัญของ	-9448
▁มีชื่อเรียก	-9449
▁ศาสตราจารย์	-9450
▁เป็นทางหลวง	-9451
▁ประเทศเบลเยียม	-9452
▁เป็นที่ตั้งของ	-9453
▁เป็นนักแสดงและ	-9454
ตะวันตกของประเทศ	-9455
ษี	-9456
้ต	-9457
ena	-9458
คัล	-9459
นซ์	-9460
ฟิว	-9461
ยีน	-9462
ลวง	-9463
หาญ	-9464
เคป	-9465
โวล	-9466
โฮะ	-9467
่าร	-9468
▁ฮี	-9469
กรีต	-9470
ของส	-9471
จินต	-9472
พายุ	-9473
าวุธ	-9474
แจ็ก	-9475
▁ant	-9476
▁dis	-9477
▁her	-9478
กิตติ	-9479
ตามิน	-9480
หน้าก	-9481
อดุลย	-9482
เทวดา	-9483
เวลล์	-9484
ใหม่อ	-9485
▁บิดา	-9486
▁ฮาร์	-9487
cyprin	-9488
กอฮอล์	-9489
ขนมปัง	-9490
ช่อดอก	-9491
ซาเนีย	-9492
นาฬิกา	-9493
ภูมิพล	-9494
มาร่วม	-9495
หัวข้อ	-9496
แห่งปี	-9497
ไม่เคย	-9498
▁กิตติ	-9499
ที่ขึ้น	-9500
ผู้ผลิต	-9501
รรายการ	-9502
หญิงสาว	-9503
แบบขนนก	-9504
ทางอากาศ	-9505
พร้อมกัน	-9506
โกสินทร์	-9507
▁กรุงเทพ	-9508
▁การแสดง	-9509
▁จนถึงปี	-9510
▁ดอกย่อย	-9511
▁หรืออาจ	-9512
การจัดการ	-9513
ช่วยในการ	-9514
ทางใต้ของ	-9515
ที่กําลัง	-9516
สมณศักดิ์	-9517
สาธารณสุข	-9518
อย่างเช่น	-9519
ไดโนเสาร์	-9520
▁กรมหมื่น	-9521
▁วงศ์ย่อย	-9522
การปฏิวัติ	-9523
มีขนาดเล็ก	-9524
ลิเวอร์พูล	-9525
▁ช่องจราจร	-9526
บิลบอร์ดฮอต	-9527
▁ดาวเคราะห์	-9528
ของจักรพรรดิ	-9529
ชายยอดเยี่ยม	-9530
▁อินโดนีเซีย	-9531
ของราชวงศ์ที่	-9532
▁ซึ่งปัจจุบัน	-9533
▁ทรงครองราชย์	-9534
▁ไม่ว่าจะเป็น	-9535
ทางตะวันออกของ	-9536
ในการเลือกตั้ง	-9537
▁ประเทศสิงคโปร์	-9538
ในสภาผู้แทนราษฎร	-9539
▁รุ่นอายุไม่เกิน	-9540
!"	-9541
mp	-9542
ซง	-9543
ญญ	-9544
ike	-9545
ola	-9546
คอป	-9547
ชัง	-9548
ดีส	-9549
ติส	-9550
ทธา	-9551
ทูล	-9552
ผัด	-9553
พอง	-9554
รุป	-9555
สัย	-9556
ฮิล	-9557
เดา	-9558
เลม	-9559
เฮล	-9560
แฉก	-9561
▁จง	-9562
▁จา	-9563
▁รอ	-9564
▁หย	-9565
▁แน	-9566
คลาน	-9567
ฟาร์	-9568
สแลม	-9569
โพ้น	-9570
▁(),	-9571
▁อิม	-9572
▁เฟร	-9573
▁เรส	-9574
คูเวต	-9575
นิสัย	-9576
บล็อก	-9577
พาหนะ	-9578
ระมิด	-9579
เสียด	-9580
โมะริ	-9581
▁เฉิน	-9582
นัดที่	-9583
ล้านนา	-9584
วงโคจร	-9585
วินาที	-9586
ื่อนไข	-9587
่อย่าง	-9588
▁พลเอก	-9589
▁โจเซฟ	-9590
การเล่น	-9591
ชั้นสูง	-9592
ที่กรุง	-9593
เกลี้ยง	-9594
เจ้าคณะ	-9595
เนียและ	-9596
ข้างล่าง	-9597
จนานุกรม	-9598
ระดับโลก	-9599
เสียงและ	-9600
พระนามว่า	-9601
ได้ดังนี้	-9602
▁เขียนโดย	-9603
▁เดิมเป็น	-9604
ภูมิประเทศ	-9605
ประกอบอาชีพ	-9606
เป็นเจ้าของ	-9607
▁นับตั้งแต่	-9608
▁สังกัดค่าย	-9609
แมสซาชูเซตส์	-9610
นางงามจักรวาล	-9611
เป็นอันดับสอง	-9612
▁จากการสํารวจ	-9613
▁ทุกวันจันทร์	-9614
ml	-9615
ุค	-9616
๊ง	-9617
ida	-9618
unc	-9619
จาค	-9620
ดรู	-9621
ดิง	-9622
นูน	-9623
ปู่	-9624
พญา	-9625
ยืด	-9626
ุณา	-9627
เรต	-9628
แซล	-9629
ไท่	-9630
ates	-9631
กลอน	-9632
ข้อต	-9633
อร์ค	-9634
อิชิ	-9635
เราะ	-9636
▁men	-9637
▁ser	-9638
▁เมน	-9639
จันทร	-9640
ซอรัส	-9641
วิเศษ	-9642
สภาวะ	-9643
โอมาน	-9644
ไปรษณ	-9645
้านี้	-9646
▁เดิน	-9647
agonal	-9648
จากคณะ	-9649
▁0.000	-9650
การเงิน	-9651
ข้อตกลง	-9652
ต้นฉบับ	-9653
เวียนนา	-9654
▁จุดยอด	-9655
▁ซีซั่น	-9656
ร้อยเอ็ด	-9657
แล้วเป็น	-9658
▁ปีเตอร์	-9659
▁เป็นภาพ	-9660
ที่ทําจาก	-9661
ทํารายได้	-9662
มีความสูง	-9663
สโลวีเนีย	-9664
เสียงร้อง	-9665
▁ฟังเสียง	-9666
▁โดยบริษัท	-9667
ทางตอนเหนือ	-9668
▁สําหรับการ	-9669
▁และมีผลงาน	-9670
ประชาธิปัตย์	-9671
มีความสําคัญ	-9672
▁เป็นสถานที่	-9673
▁เอ็นเตอร์เทน	-9674
ภาคตะวันออกเฉียง	-9675
ke	-9676
ปง	-9677
ปอ	-9678
▁q	-9679
▁×	-9680
ces	-9681
นัง	-9682
พอย	-9683
ยํา	-9684
สับ	-9685
ข้อก	-9686
ซ่อน	-9687
ตรอง	-9688
ทรัล	-9689
รนด์	-9690
รภาพ	-9691
วงจร	-9692
สลัก	-9693
สุดา	-9694
หมึก	-9695
เป็ด	-9696
▁อดี	-9697
▁เซน	-9698
▁แผน	-9699
▁ใส่	-9700
▁ไข่	-9701
ชําระ	-9702
ดามัน	-9703
บันได	-9704
ปกรรม	-9705
ากรณ์	-9706
เดรีย	-9707
เพิ่ง	-9708
โลหิต	-9709
ailand	-9710
ichael	-9711
ตัวรับ	-9712
มีเนีย	-9713
หลายปี	-9714
เอกของ	-9715
คอมิกส์	-9716
นารายณ์	-9717
หนองบัว	-9718
เต็มว่า	-9719
▁เกี่ยว	-9720
จอห์นสัน	-9721
จะทําให้	-9722
บรรยากาศ	-9723
พิษณุโลก	-9724
สยองขวัญ	-9725
แมคดาวน์	-9726
โพ้นทะเล	-9727
▁ซึ่งจัด	-9728
ประเภทของ	-9729
▁ของชาร์ต	-9730
▁นักดนตรี	-9731
▁มหาวิหาร	-9732
▁สิงคโปร์	-9733
แม่น้ําโขง	-9734
▁ฤดูกาลที่	-9735
ชาวออสเตรีย	-9736
มาจากคําว่า	-9737
มีชื่อเรียก	-9738
เข้ายึดครอง	-9739
▁ทําหน้าที่	-9740
▁ภายใต้ชื่อ	-9741
▁เป็นองค์กร	-9742
ที่เกี่ยวกับ	-9743
แห่งเดนมาร์ก	-9744
การปกครองเป็น	-9745
▁เป็นสายการบิน	-9746
สถาบันอุดมศึกษา	-9747
▁และได้รับรางวัล	-9748
กษ	-9749
ุข	-9750
ino	-9751
ony	-9752
ข้า	-9753
ซอส	-9754
ซูด	-9755
ผัง	-9756
ลีฟ	-9757
สกา	-9758
หมี	-9759
หยก	-9760
ห่อ	-9761
เจล	-9762
เตา	-9763
เยา	-9764
เสธ	-9765
แน่	-9766
▁ปู	-9767
▁พา	-9768
▁มม	-9769
กระช	-9770
ตื้น	-9771
บทุก	-9772
ฝุ่น	-9773
ราชภ	-9774
สลาก	-9775
สาคร	-9776
หลิน	-9777
ัคคี	-9778
โรคม	-9779
▁cup	-9780
พันธะ	-9781
ภาษาล	-9782
ฮิโตะ	-9783
เรียม	-9784
็กซัส	-9785
▁อัคร	-9786
ชิงชัย	-9787
นายแบบ	-9788
ลาลีกา	-9789
สํารอง	-9790
เป็นผล	-9791
เส้นใย	-9792
และถูก	-9793
ให้การ	-9794
ไว้ที่	-9795
คุ้มกัน	-9796
จําเพาะ	-9797
ตอบสนอง	-9798
ยับยั้ง	-9799
ล้อมรอบ	-9800
เดสลีกา	-9801
โคจรรอบ	-9802
จันทบุรี	-9803
บอยแบนด์	-9804
ฝั่งทะเล	-9805
เขียนโดย	-9806
▁กรุงโรม	-9807
▁พันล้าน	-9808
▁รถไฟฟ้า	-9809
▁หัวหน้า	-9810
ก่อนที่จะ	-9811
คีรีขันธ์	-9812
รับราชการ	-9813
ไม้ประดับ	-9814
คนปัจจุบัน	-9815
ชาติพันธุ์	-9816
มีเนื้อที่	-9817
รวมกันเป็น	-9818
เรสต์ลิงเอ็น	-9819
ถ้วยพระราชทาน	-9820
ประชาสัมพันธ์	-9821
▁รีโอเดจาเนโร	-9822
▁เกิดที่เมือง	-9823
รายการโทรทัศน์	-9824
หนึ่งในจังหวัด	-9825
▁ดําเนินการโดย	-9826
ของประเทศโปแลนด์	-9827
จากระดับน้ําทะเล	-9828
ka	-9829
mo	-9830
ny	-9831
als	-9832
err	-9833
lex	-9834
ors	-9835
ซัว	-9836
ดัล	-9837
ตร์	-9838
พวง	-9839
ยวด	-9840
แคม	-9841
▁fe	-9842
▁ไน	-9843
atic	-9844
บูดา	-9845
วาระ	-9846
ว่าก	-9847
ัตตา	-9848
ิกัน	-9849
เลิน	-9850
แอ่ง	-9851
▁mac	-9852
▁res	-9853
▁ซุน	-9854
▁ปฐม	-9855
▁เติ	-9856
▁แรม	-9857
▁โลก	-9858
กระจก	-9859
ขนายก	-9860
ตัวตน	-9861
มิลาน	-9862
เจกต์	-9863
แอนดร	-9864
▁หลิว	-9865
▁เกสร	-9866
ที่ออก	-9867
เทกซัส	-9868
ให้นัก	-9869
ให้ผู้	-9870
▁0000:	-9871
▁party	-9872
▁ผลกลม	-9873
ทางอ้อม	-9874
ทําความ	-9875
นามสกุล	-9876
บาห์เรน	-9877
ริเริ่ม	-9878
ใช้เวลา	-9879
▁น้ําตก	-9880
การพัฒนา	-9881
ชนะจะได้	-9882
ที่สถานี	-9883
ศิลปกรรม	-9884
ทรงกระบอก	-9885
ที่สวยงาม	-9886
สนธิสัญญา	-9887
▁แต่เมื่อ	-9888
พระราชสมภพ	-9889
ใช้สําหรับ	-9890
▁ครองราชย์	-9891
ทางธรรมชาติ	-9892
▁เปิดทําการ	-9893
▁และจังหวัด	-9894
▁ซึ่งหมายถึง	-9895
เข้าแข่งขันใน	-9896
▁มิวสิกวิดีโอ	-9897
ทางหลวงหมายเลข	-9898
▁เป็นภาษากลุ่ม	-9899
ได้รับเลือกตั้ง	-9900
▁ของสหรัฐอเมริกา	-9901
ko	-9902
ama	-9903
ein	-9904
way	-9905
กีซ	-9906
ขัง	-9907
ทัต	-9908
ปลง	-9909
ปี้	-9910
พรี	-9911
รัว	-9912
ศุภ	-9913
าริ	-9914
แลค	-9915
โกต	-9916
โรฒ	-9917
ject	-9918
กรัง	-9919
พาร์	-9920
ร็อง	-9921
วุ่น	-9922
สังฆ	-9923
สามี	-9924
เช่า	-9925
แสวง	-9926
โป่ง	-9927
▁sec	-9928
▁กิจ	-9929
▁วัช	-9930
▁สัม	-9931
คาร์ล	-9932
จอมพล	-9933
ส์คัพ	-9934
อายุน	-9935
ในตอน	-9936
▁life	-9937
▁miss	-9938
▁serv	-9939
▁นอร์	-9940
▁พลัง	-9941
▁อ่าว	-9942
ขอบเขต	-9943
สุริยะ	-9944
สแควร์	-9945
ื้องอก	-9946
เกิดใน	-9947
เขตแดน	-9948
โตเนีย	-9949
ในสนาม	-9950
▁จะได้	-9951
▁เฟอร์	-9952
ขนาดของ	-9953
ขาภิบาล	-9954
ณาธิการ	-9955
ร้องนํา	-9956
เชสแห่ง	-9957
▁ทําจาก	-9958
▁องค์กร	-9959
นักดนตรี	-9960
เรนเจอร์	-9961
ในช่วงปี	-9962
▁ขบวนการ	-9963
▁ผู้เป็น	-9964
▁รัสเซีย	-9965
ชาวบราซิล	-9966
ที่นําโดย	-9967
รัฐประหาร	-9968
สหพันธรัฐ	-9969
ออกมาเป็น	-9970
โทรทรรศน์	-9971
โรคมะเร็ง	-9972
▁ทําให้มี	-9973
ก่อให้เกิด	-9974
สร้างสรรค์	-9975
▁สายการบิน	-9976
ภูมิพลอดุลย	-9977
ในรัชกาลที่	-9978
านิติบัญญัติ	-9979
ครั้งที่หนึ่ง	-9980
ในเอเชียนเกมส์	-9981
▁จังหวัดชลบุรี	-9982
ของสหภาพโซเวียต	-9983
ที่มีความสําคัญ	-9984
อินเตอร์เนชันแนล	-9985
era	-9986
mar	-9987
ตช์	-9988
ฟลู	-9989
รีส	-9990
ลอก	-9991
วลี	-9992
ือย	-9993
เดะ	-9994
โดม	-9995
จิ้ม	-9996
ฟุกุ	-9997
สั่น	-9998
อ๋อง	-9999
เอลิ	-10000
แฟร์	-10001
▁not	-10002
งดงาม	-10003
ทุกข์	-10004
ปาปัว	-10005
รถถัง	-10006
วน้ํา	-10007
เบี้ย	-10008
เมียน	-10009
แคนาด	-10010
๊กก๊ก	-10011
▁film	-10012
▁rock	-10013
▁เว้น	-10014
กับถนน	-10015
ปริศนา	-10016
สุดยอด	-10017
ัตเวีย	-10018
เบสบอล	-10019
ในหมู่	-10020
▁colle	-10021
▁ผิวใบ	-10022
▁เซลล์	-10023
ของฝ่าย	-10024
ชานชาลา	-10025
บุญธรรม	-10026
ปรากฏใน	-10027
หลังการ	-10028
อนุสรณ์	-10029
อาร์เอส	-10030
▁อวอร์ด	-10031
▁อับดุล	-10032
▁เข้ามา	-10033
จิตวิทยา	-10034
นําไปสู่	-10035
บ้านเกิด	-10036
พระมารดา	-10037
มุ่งหมาย	-10038
สร้างโดย	-10039
สังเวียน	-10040
อันดามัน	-10041
กาฬสินธุ์	-10042
จัดอยู่ใน	-10043
มหาสารคาม	-10044
ของร่างกาย	-10045
จะเรียกว่า	-10046
ประสูติแต่	-10047
ศาสนาฮินดู	-10048
ศึกษาระดับ	-10049
▁กระบวนการ	-10050
กําลังภายใน	-10051
ตั้งแต่อายุ	-10052
▁ชื่อสปีชีส์	-10053
▁อาศัยอยู่ใน	-10054
▁เป็นอุปกรณ์	-10055
สําเร็จราชการ	-10056
อภิเษกสมรสกับ	-10057
▁การเลือกตั้ง	-10058
▁เป็นหน่วยงาน	-10059
เล่นในตําแหน่ง	-10060
ประจวบคีรีขันธ์	-10061
pa	-10062
ty	-10063
ถน	-10064
ถ์	-10065
iet	-10066
ows	-10067
ull	-10068
จุน	-10069
ท้า	-10070
นิม	-10071
มิฬ	-10072
เลา	-10073
เหอ	-10074
▁ab	-10075
▁do	-10076
▁fr	-10077
กาแฟ	-10078
ตุ๊ก	-10079
ปฏิส	-10080
ราศี	-10081
สวิส	-10082
เอ็ก	-10083
โมโน	-10084
▁นิน	-10085
▁บรู	-10086
สต็อป	-10087
ากรุก	-10088
เยือน	-10089
ในบาง	-10090
▁จิตร	-10091
▁หลัก	-10092
ผืนผ้า	-10093
มูลค่า	-10094
สกลนคร	-10095
เกินไป	-10096
▁inter	-10097
▁super	-10098
▁เซนต์	-10099
▁เตียว	-10100
▁เฮอร์	-10101
กําลังก	-10102
ดิจิทัล	-10103
ทรวิโรฒ	-10104
พลาสติก	-10105
ว่าด้วย	-10106
อยู่ใต้	-10107
ุศาสตร์	-10108
▁นางแบบ	-10109
▁บันทึก	-10110
▁โดยนํา	-10111
บางอย่าง	-10112
ในตํานาน	-10113
▁นวนิยาย	-10114
ปริญญาเอก	-10115
ปาเลสไตน์	-10116
ลงทะเบียน	-10117
เป็นแหล่ง	-10118
ในภาษาไทย	-10119
▁เพลงชาติ	-10120
ของอินเดีย	-10121
ร่วมงานกับ	-10122
▁จักรวรรดิ	-10123
▁ถึงแม้ว่า	-10124
▁พระราชวัง	-10125
กรุงโตเกียว	-10126
เกษตรศาสตร์	-10127
เวียงจันทน์	-10128
ทางพันธุกรรม	-10129
ภาษาฝรั่งเศส	-10130
วิสุงคามสีมา	-10131
อยู่ที่เมือง	-10132
▁เป็นอดีตนัก	-10133
▁เป็นกษัตริย์	-10134
▁แห่งฝรั่งเศส	-10135
ภูมิพลอดุลยเดช	-10136
และเรียบเรียงโดย	-10137
.,	-10138
วต	-10139
gre	-10140
กาม	-10141
นาก	-10142
ฟต์	-10143
ฟอน	-10144
อาส	-10145
เณร	-10146
เสพ	-10147
แยง	-10148
▁พย	-10149
▁มอ	-10150
กุศล	-10151
ซ็อน	-10152
ยิ้ม	-10153
อีพี	-10154
อ็อง	-10155
ูเอล	-10156
▁ang	-10157
▁iii	-10158
▁ควบ	-10159
▁คาบ	-10160
▁จาง	-10161
▁ป่า	-10162
▁ฟอน	-10163
▁ลอน	-10164
▁แถบ	-10165
ขันที	-10166
ซิลลา	-10167
ดุสิต	-10168
พบกัน	-10169
ฟาเอล	-10170
ลาลัม	-10171
เยาว์	-10172
เสิร์	-10173
่ากับ	-10174
้น็อค	-10175
▁city	-10176
▁wind	-10177
▁กลาง	-10178
จะแสดง	-10179
จาเมกา	-10180
นาสติก	-10181
บําบัด	-10182
ลําไส้	-10183
หินปูน	-10184
ไบเบิล	-10185
▁เทียน	-10186
▁ในบาง	-10187
บุกเบิก	-10188
ระบุว่า	-10189
▁พิธีกร	-10190
ขึ้นใหม่	-10191
ทางสังคม	-10192
ร่วมสมัย	-10193
ออกแบบมา	-10194
อุดรธานี	-10195
▁อําเภอน	-10196
หมุนเวียน	-10197
เนื้อร้อง	-10198
แอลกอฮอล์	-10199
จุดประสงค์	-10200
ฉะเชิงเทรา	-10201
ภาษาอาหรับ	-10202
ยูนิเวิร์ส	-10203
ลาลัมเปอร์	-10204
▁ที่แปลว่า	-10205
▁มีพี่น้อง	-10206
และเทคโนโลยี	-10207
▁เนื้อเรื่อง	-10208
▁ห่างจากเมือง	-10209
▁และสัญลักษณ์	-10210
ศรีนครินทรวิโรฒ	-10211
▁พระมหากษัตริย์	-10212
การแข่งขันฟุตบอล	-10213
มอบรางวัลสําหรับ	-10214
▁นอกจากนี้เขายัง	-10215
wh	-10216
wo	-10217
ขุ	-10218
ฎก	-10219
บง	-10220
ษฏ	-10221
เฝ	-10222
ger	-10223
ink	-10224
lor	-10225
vol	-10226
นุม	-10227
ลือ	-10228
เตส	-10229
โคว	-10230
โซะ	-10231
▁นพ	-10232
▁ปุ	-10233
able	-10234
ตื่น	-10235
มินิ	-10236
มิยะ	-10237
ริโอ	-10238
วาร์	-10239
วียน	-10240
สที่	-10241
หยัก	-10242
อายู	-10243
ฮีโร	-10244
เค้ก	-10245
เบงก	-10246
แต้ม	-10247
▁can	-10248
▁war	-10249
▁มุม	-10250
▁สี่	-10251
▁เอา	-10252
▁แดน	-10253
▁แฟร	-10254
▁แอม	-10255
คนั้น	-10256
พฤกษ์	-10257
วันโด	-10258
หายไป	-10259
โพธิส	-10260
▁ท็อป	-10261
กุมารี	-10262
ฐานของ	-10263
ทีมที่	-10264
มีอยู่	-10265
อินทรี	-10266
ันสกฤต	-10267
▁style	-10268
▁นํามา	-10269
▁แต่จะ	-10270
▁ในรอบ	-10271
กลีบดอก	-10272
ความจํา	-10273
ชัยภูมิ	-10274
ปริมาตร	-10275
แพร่ภาพ	-10276
ใช้จ่าย	-10277
ใต้น้ํา	-10278
▁associ	-10279
▁ของรัฐ	-10280
▁วินาที	-10281
▁เล่นใน	-10282
▁และรัฐ	-10283
กรุงเทพฯ	-10284
ทะเลทราย	-10285
เพียงแค่	-10286
เมื่อราว	-10287
▁มากกว่า	-10288
▁มีเมือง	-10289
▁เทศมณฑล	-10290
▁เป็นโรค	-10291
▁เยอรมนี	-10292
ต่อสู้กับ	-10293
ถิ่นเดียว	-10294
ผู้ปกครอง	-10295
อนุญาตให้	-10296
เสร็จในปี	-10297
แทนซาเนีย	-10298
cyprinidae	-10299
อาร์มีเนีย	-10300
▁นักฟุตบอล	-10301
▁และประเทศ	-10302
ความขัดแย้ง	-10303
สมาคมฟุตบอล	-10304
โกสโลวาเกีย	-10305
ในทวีปยุโรป	-10306
▁พระราชโอรส	-10307
รัตนโกสินทร์	-10308
▁เริ่มก่อสร้าง	-10309
▁จากมหาวิทยาลัย	-10310
▁เป็นบุตรของนาย	-10311
เอนเตอร์เทนเมนต์	-10312
"|	-10313
ye	-10314
งิ	-10315
gro	-10316
ott	-10317
ฉาน	-10318
นิต	-10319
มุก	-10320
ลาง	-10321
ลุย	-10322
วน์	-10323
▁สต	-10324
entr	-10325
iver	-10326
พรรด	-10327
มาเก	-10328
สงวน	-10329
หลอก	-10330
เซ็ง	-10331
แคโร	-10332
แม่ม	-10333
โหวต	-10334
ไหล่	-10335
▁"00	-10336
▁bar	-10337
▁val	-10338
▁vol	-10339
▁ซิม	-10340
กอล์ฟ	-10341
ซิลเว	-10342
บบ่อย	-10343
พร่อง	-10344
หัตถ์	-10345
ากรรม	-10346
โพสต์	-10347
▁gold	-10348
▁high	-10349
▁park	-10350
▁vers	-10351
▁ระยะ	-10352
กลับไป	-10353
ทหารบก	-10354
ที่สิบ	-10355
ที่แยก	-10356
รายนาม	-10357
ลูกชาย	-10358
สมมาตร	-10359
เป็นยา	-10360
โองการ	-10361
▁มาร์ก	-10362
กับน้ํา	-10363
ปักเป้า	-10364
หม้อแกง	-10365
อินช็อน	-10366
อุโมงค์	-10367
เทอร์เน	-10368
โปเลียน	-10369
▁เอ็กซ์	-10370
ทั้งหลาย	-10371
สันติภาพ	-10372
เงื่อนไข	-10373
เรื่อยมา	-10374
เสื้อผ้า	-10375
แฮมเมอร์	-10376
▁ภูมิภาค	-10377
▁เป็นตัว	-10378
ชาวแคนาดา	-10379
ภูมิอากาศ	-10380
สถานการณ์	-10381
ในนิตยสาร	-10382
เอ็ดเวิร์ด	-10383
▁ติดกับรัฐ	-10384
ครั้งแรกและ	-10385
ความร่วมมือ	-10386
จุดเริ่มต้น	-10387
จํานวนหนึ่ง	-10388
ภาพยนตร์โดย	-10389
ที่มีชื่อว่า	-10390
พระราชนิพนธ์	-10391
▁โดยออกอากาศ	-10392
าระหว่างวันที่	-10393
วยปล้ําอาชีพของ	-10394
ในประเทศเยอรมนี	-10395
gh	-10396
go	-10397
kh	-10398
ัร	-10399
▁ญ	-10400
ien	-10401
คัฟ	-10402
คุป	-10403
ฆัง	-10404
จตุ	-10405
ยุว	-10406
ลี้	-10407
สวด	-10408
ียส	-10409
แปน	-10410
โอบ	-10411
▁--	-10412
▁กก	-10413
▁พอ	-10414
▁ใจ	-10415
ช็อง	-10416
นาวี	-10417
นิลา	-10418
บาเย	-10419
มิชิ	-10420
สาลี	-10421
ฮะมะ	-10422
ัชนี	-10423
ารัส	-10424
เฉิง	-10425
เลมี	-10426
โคลน	-10427
โค่น	-10428
โตรี	-10429
่ายน	-10430
aster	-10431
ซูดาน	-10432
ที่สะ	-10433
พิชิต	-10434
ส์ที่	-10435
หลายๆ	-10436
เกมอน	-10437
เชียล	-10438
เธอก็	-10439
เรอัล	-10440
โยะชิ	-10441
ในปีพ	-10442
▁stud	-10443
กระชับ	-10444
ราชภัฏ	-10445
วงแหวน	-10446
ส์บรุค	-10447
เตมาลา	-10448
เปียโน	-10449
แดนติด	-10450
▁ชาร์ล	-10451
▁พระยา	-10452
ของเกาะ	-10453
ความผิด	-10454
คอนกรีต	-10455
คอมเมดี	-10456
จับสลาก	-10457
ที่ยิ่ง	-10458
พระราชา	-10459
รีมิกซ์	-10460
วดราม่า	-10461
แนวร่วม	-10462
▁center	-10463
▁ก้านใบ	-10464
▁มีส่วน	-10465
▁มีหลาย	-10466
▁และจาก	-10467
ของแคว้น	-10468
งานเขียน	-10469
พิเศษของ	-10470
อมเหลือง	-10471
อย่างไม่	-10472
เป็นเพลง	-10473
▁ที่ชื่อ	-10474
ตามกฎหมาย	-10475
อินส์บรุค	-10476
เข้าวงการ	-10477
เยื่อหุ้ม	-10478
▁กลายเป็น	-10479
▁มีดังนี้	-10480
▁สาขาวิชา	-10481
จุฬาลงกรณ์	-10482
▁กลีบเลี้ยง	-10483
▁โปรดักชั่น	-10484
ของจักรวรรดิ	-10485
เจ้าจอมมารดา	-10486
แห่งหนึ่งของ	-10487
▁งานประกาศผล	-10488
▁เป็นชื่อของ	-10489
ประจําจังหวัด	-10490
เมื่อเทียบกับ	-10491
▁โดยมีผลบังคับ	-10492
▁คณะนิเทศศาสตร์	-10493
▁เชียงใหม่เกมส์	-10494
▁เป็นซิงเกิลของ	-10495
ทางสถานีโทรทัศน์	-10496
sm	-10497
กก	-10498
รณ	-10499
ไจ	-10500
off	-10501
ดัส	-10502
ตริ	-10503
นาญ	-10504
พลิ	-10505
ฟฟ์	-10506
ฟอก	-10507
ฟาน	-10508
เทม	-10509
เนป	-10510
▁ขอ	-10511
กินี	-10512
นามิ	-10513
บวร์	-10514
บุ๊ก	-10515
มีร์	-10516
เซเน	-10517
เห็ด	-10518
▁hot	-10519
▁wwf	-10520
▁ชาน	-10521
▁ดาร	-10522
▁ยาน	-10523
นิเวศ	-10524
พลเอก	-10525
วัฒนา	-10526
อุทิศ	-10527
ารถนา	-10528
โฮล์ม	-10529
ไอดอล	-10530
▁king	-10531
▁ร็อค	-10532
กุฎราช	-10533
ดีเด่น	-10534
บริจาค	-10535
ปฏิเสธ	-10536
ผู้ทรง	-10537
รับรู้	-10538
ลําพูน	-10539
สีเงิน	-10540
เม้นท์	-10541
และไม่	-10542
การากัว	-10543
คคอร์ดส	-10544
ความดัน	-10545
ที่เล็ก	-10546
นับเป็น	-10547
ประเด็น	-10548
พราหมณ์	-10549
ล้มเหลว	-10550
อําเภอน	-10551
เป็นชาว	-10552
▁awards	-10553
▁ที่จัด	-10554
กประสงค์	-10555
หนึ่งคือ	-10556
อัตราการ	-10557
เรขาคณิต	-10558
เสรีนิยม	-10559
▁ชื่อย่อ	-10560
▁อาจารย์	-10561
▁อุปกรณ์	-10562
ข้อกําหนด	-10563
บรรพบุรุษ	-10564
ประดิษฐาน	-10565
โดราเอมอน	-10566
▁thailand	-10567
▁ในบริเวณ	-10568
▁ให้เสียง	-10569
ภายใต้ชื่อ	-10570
หม้อแกงลิง	-10571
▁ถึงวันที่	-10572
ศูนย์การค้า	-10573
▁เริ่มสร้าง	-10574
เป็นส่วนใหญ่	-10575
▁สาขานักแสดง	-10576
▁เป็นโปรแกรม	-10577
ชายชาวญี่ปุ่น	-10578
เป็นสมาชิกของ	-10579
▁มีความหมายว่า	-10580
ทวีปอเมริกาเหนือ	-10581
▁เป็นทรงหลายหน้า	-10582
tt	-10583
▁ฐ	-10584
▁๔	-10585
uch	-10586
คลา	-10587
พอน	-10588
หวง	-10589
หอก	-10590
หาน	-10591
ฮิว	-10592
เฟต	-10593
เรซ	-10594
แขก	-10595
โตก	-10596
โล่	-10597
▁cy	-10598
▁ตุ	-10599
▁แร	-10600
ball	-10601
กลไก	-10602
คันธ	-10603
คีร์	-10604
ซารา	-10605
ถ่าน	-10606
ปลอม	-10607
ป้าย	-10608
พลอย	-10609
หิมะ	-10610
ห้าง	-10611
ิร์ธ	-10612
เกย์	-10613
เกสร	-10614
แชร์	-10615
▁ปีก	-10616
▁ยาง	-10617
▁อภิ	-10618
▁เจน	-10619
ตกรรม	-10620
ตองงา	-10621
มงกุฏ	-10622
ยธรรม	-10623
ส์และ	-10624
หัวหน	-10625
ัศวิน	-10626
ากลับ	-10627
เมียว	-10628
โดมิน	-10629
ชั้นใน	-10630
ตอนใต้	-10631
ตั้งใจ	-10632
หยุดรถ	-10633
เฟียร์	-10634
แพ้ได้	-10635
ในมณฑล	-10636
ในเพลง	-10637
▁ที่จะ	-10638
▁ยุโรป	-10639
▁เที่ย	-10640
ด้านนอก	-10641
ราชสกุล	-10642
สมัยที่	-10643
หลักที่	-10644
อนุมัติ	-10645
าร์ตโฟน	-10646
เกิดที่	-10647
เวลาที่	-10648
▁มาเรีย	-10649
ทางเหนือ	-10650
ทาวเวอร์	-10651
▁อเมริกา	-10652
ผู้กํากับ	-10653
มีทั้งหมด	-10654
ยาวประมาณ	-10655
สถานกงสุล	-10656
เอสโตเนีย	-10657
โดยเฉลี่ย	-10658
▁มีลําตัว	-10659
ยุทธศาสตร์	-10660
เดิร์นไนน์	-10661
เสกสมรสกับ	-10662
แบบแบ่งเขต	-10663
▁ก่อตั้งวง	-10664
▁จากเรื่อง	-10665
▁เป็นสถานี	-10666
ข้ามแม่น้ํา	-10667
ที่เขียนโดย	-10668
เครื่องเล่น	-10669
เดือนมีนาคม	-10670
เป็นระยะทาง	-10671
และภาพยนตร์	-10672
▁กองทัพเรือ	-10673
▁อุตสาหกรรม	-10674
▁เกิดจากการ	-10675
▁เมืองตูริน	-10676
แห่งฝรั่งเศส	-10677
กรุงศรีอยุธยา	-10678
เส้นศูนย์สูตร	-10679
▁สหภาพโซเวียต	-10680
ข้าวหม้อแกงลิง	-10681
ทรงตันจอห์นสัน	-10682
อํานวยการสร้าง	-10683
▁บทประพันธ์ของ	-10684
▁เมืองหลวงของรัฐ	-10685
sa	-10686
dro	-10687
จาบ	-10688
ชรา	-10689
ฟีน	-10690
มีด	-10691
ลอบ	-10692
อิต	-10693
ียะ	-10694
ูกี	-10695
เคม	-10696
เฮา	-10697
eral	-10698
การา	-10699
ครีม	-10700
คลิน	-10701
ชนนี	-10702
นากา	-10703
นิษฐ	-10704
นุ่ม	-10705
ลีลา	-10706
ลูมิ	-10707
วรรค	-10708
สโตน	-10709
หลิว	-10710
ัฒน์	-10711
เบญจ	-10712
▁ตรง	-10713
▁บาส	-10714
▁วัย	-10715
▁ไก่	-10716
iform	-10717
ution	-10718
กันดา	-10719
คนไทย	-10720
ต้นปี	-10721
พัทยา	-10722
มาได้	-10723
มียอด	-10724
ในนคร	-10725
้วมือ	-10726
▁สื่อ	-10727
▁สเปน	-10728
▁เอ็ก	-10729
enthes	-10730
ราชินี	-10731
เรียอา	-10732
โปรดัก	-10733
ใจกลาง	-10734
▁กล้วย	-10735
▁คนจาก	-10736
▁นิกาย	-10737
▁พบได้	-10738
นั้นได้	-10739
ลินอยส์	-10740
อันเป็น	-10741
เป็นรัฐ	-10742
เล่นว่า	-10743
โบลิเวีย	-10744
ถ่ายทอดสด	-10745
ทางการค้า	-10746
ที่ออกฉาย	-10747
ธรรมเนียม	-10748
เรียบร้อย	-10749
โดมินิกัน	-10750
ในสกุลนี้	-10751
▁ครั้งแรก	-10752
▁ครีบหลัง	-10753
▁เมืองซอล	-10754
▁แชมเปียน	-10755
▁และระดับ	-10756
ชาวรัสเซีย	-10757
พุทธศักราช	-10758
หลายประเทศ	-10759
เบิลเทนนิส	-10760
เบื้องหลัง	-10761
เลื้อยคลาน	-10762
▁คนสุดท้าย	-10763
▁ตําบลบ้าน	-10764
ที่ใช้เรียก	-10765
ส่วนหนึ่งใน	-10766
▁ลอสแอนเจลิส	-10767
▁เนื่องจากมี	-10768
▁และปัจจุบัน	-10769
การปกครองในปี	-10770
อยู่ในอัลบั้ม	-10771
▁อาจจะหมายถึง	-10772
ทางวิทยาศาสตร์	-10773
โทรศัพท์มือถือ	-10774
▁แข่งขันวันที่	-10775
ตั้งอยู่ที่เมือง	-10776
ฐ์	-10777
ลช	-10778
๊ต	-10779
▁​	-10780
iro	-10781
med	-10782
ole	-10783
que	-10784
จู่	-10785
ธิด	-10786
ยอน	-10787
อาล	-10788
ุจิ	-10789
ู้ด	-10790
แอด	-10791
โพก	-10792
▁au	-10793
▁สู	-10794
eter	-10795
iana	-10796
ทมิฬ	-10797
ทุกๆ	-10798
ปิฎก	-10799
รรมา	-10800
เคาร	-10801
เชิด	-10802
โดวา	-10803
▁บาร	-10804
▁สุร	-10805
ideae	-10806
พันปี	-10807
โยต้า	-10808
ในเกม	-10809
▁heav	-10810
▁วอร์	-10811
▁เหตุ	-10812
ตอบรับ	-10813
นั้นจะ	-10814
อักษรส	-10815
ถึงความ	-10816
นัดดาใน	-10817
หมากรุก	-10818
เวลานาน	-10819
▁ซัมซุง	-10820
▁บริหาร	-10821
ของอักษร	-10822
คล้ายกัน	-10823
ทางศาสนา	-10824
โบราณคดี	-10825
ใบเลี้ยง	-10826
ไปรษณีย์	-10827
▁เกิดจาก	-10828
กะเหรี่ยง	-10829
ของพรินซ์	-10830
ดาวบริวาร	-10831
ที่ปกครอง	-10832
วันจันทร์	-10833
ว่าราชการ	-10834
▁ปรากฏตัว	-10835
▁พัฒนาโดย	-10836
▁เป็นแขวง	-10837
มอนเตเนโกร	-10838
ภายในประเทศ	-10839
สนับสนุนจาก	-10840
▁จีเอ็มเอ็ม	-10841
▁ตัวจังหวัด	-10842
▁ต่อมาเมื่อ	-10843
▁ออกดอกช่วง	-10844
เดือนธันวาคม	-10845
▁ประเทศแคนาด	-10846
▁และมีสมาชิก	-10847
อย่างแพร่หลาย	-10848
▁ทีมที่แพ้ได้	-10849
▁และเป็นเมือง	-10850
ของมหาวิทยาลัย	-10851
วิศวกรรมศาสตร์	-10852
▁ที่เกิดจากการ	-10853
▁โดยการแข่งขัน	-10854
▁จึงมีการจัดการ	-10855
▁ทีมที่ชนะจะได้	-10856
▁ประเทศฟินแลนด์	-10857
ครั้งเดียวของไทย	-10858
แห่งเนเธอร์แลนด์	-10859
▁ประเทศบัลแกเรีย	-10860
ภค	-10861
หด	-10862
ไธ	-10863
let	-10864
ชัญ	-10865
ถไฟ	-10866
ธัญ	-10867
นึง	-10868
พลู	-10869
มิต	-10870
รอก	-10871
ลัพ	-10872
ุลา	-10873
▁</	-10874
▁แช	-10875
ouse	-10876
คนละ	-10877
ด็อก	-10878
ท่วม	-10879
นาที	-10880
มิโน	-10881
วิดี	-10882
วิวม	-10883
ว่าย	-10884
หน่อ	-10885
อุตร	-10886
แรกๆ	-10887
▁คิว	-10888
▁อุด	-10889
▁เหย	-10890
▁แสน	-10891
กร่อย	-10892
กลั่น	-10893
บอกซ์	-10894
แมทช์	-10895
แอนติ	-10896
▁กรรม	-10897
▁กอร์	-10898
การ์ตา	-10899
ของคํา	-10900
จดหมาย	-10901
ออกตาม	-10902
เหลียง	-10903
เฮฟวี่	-10904
▁คลื่น	-10905
▁ปีที่	-10906
▁เอกซ์	-10907
กลางและ	-10908
ดิสนีย์	-10909
ส่วนใหญ	-10910
แบ่งแยก	-10911
แอปเปิล	-10912
▁000000	-10913
▁และพระ	-10914
▁และมัก	-10915
ลูกครึ่ง	-10916
ออตโตมัน	-10917
อินโดจีน	-10918
เริ่มใช้	-10919
▁ผู้เล่น	-10920
▁สาขามอญ	-10921
▁เกียรติ	-10922
ทางตอนใต้	-10923
บริหารโดย	-10924
ประจําวัน	-10925
รักษาความ	-10926
ร้านอาหาร	-10927
สุขาภิบาล	-10928
หม่อมเจ้า	-10929
▁เว็บไซต์	-10930
มีขนาดใหญ่	-10931
ยกน้ําหนัก	-10932
▁ผู้กํากับ	-10933
ความเร็วสูง	-10934
▁00,000,000	-10935
เดือนกันยายน	-10936
▁มีการชิงชัย	-10937
ผ่านศูนย์กลาง	-10938
รูปสี่เหลี่ยม	-10939
▁เขาได้รับการ	-10940
▁เป็นกลุ่มดาว	-10941
▁เป็นเมืองและ	-10942
▁ซึ่งประกอบด้วย	-10943
▁โดยการเลือกตั้ง	-10944
rh	-10945
นอ	-10946
▁°	-10947
ios	-10948
out	-10949
ugh	-10950
งับ	-10951
ดึก	-10952
บวร	-10953
รัด	-10954
อาม	-10955
▁mc	-10956
▁sw	-10957
▁ฟู	-10958
▁อร	-10959
ควิน	-10960
นิ่ง	-10961
ปราม	-10962
ป๊อป	-10963
รรูป	-10964
สบาย	-10965
หวาย	-10966
อลํา	-10967
ามัย	-10968
ุมาก	-10969
ูลย์	-10970
แย่ง	-10971
ไตน์	-10972
▁apg	-10973
▁dev	-10974
▁eng	-10975
▁nxt	-10976
▁tag	-10977
▁บัล	-10978
▁สมิ	-10979
▁อาย	-10980
▁เอด	-10981
▁ไต้	-10982
ublic	-10983
จึงมี	-10984
ดิตถ์	-10985
ทดแทน	-10986
พานิช	-10987
ฟิลิป	-10988
ระยอง	-10989
ราวน์	-10990
สิงโต	-10991
ฮอลล์	-10992
ในโซล	-10993
ไฟลัม	-10994
ไอออน	-10995
▁ข้าง	-10996
▁เสนา	-10997
ations	-10998
งอยปาก	-10999
ถูกใช้	-11000
นิเซีย	-11001
ปลายปี	-11002
ยกฐานะ	-11003
ราชทูต	-11004
วางแผง	-11005
อักขระ	-11006
อายูมิ	-11007
อินทร์	-11008
ฮัมมัด	-11009
ําหรับ	-11010
▁ประสบ	-11011
▁วัตถุ	-11012
ต้นด้วย	-11013
ทางน้ํา	-11014
นครนายก	-11015
รถไฟสาย	-11016
สองส่วน	-11017
เดิมคือ	-11018
▁ของเขต	-11019
▁แคนาดา	-11020
▁โรงแรม	-11021
ของวัตถุ	-11022
จะได้รับ	-11023
ติมากรรม	-11024
มืออาชีพ	-11025
รักษาโรค	-11026
ามาตรฐาน	-11027
เวลากลาง	-11028
▁gmember	-11029
▁สนามบิน	-11030
▁หน้านี้	-11031
▁อําเภอก	-11032
▁เป็นขนม	-11033
นี้สามารถ	-11034
พุทธศาสนา	-11035
▁ครอบครัว	-11036
ที่แข่งขัน	-11037
พระราชธิดา	-11038
มาซิโดเนีย	-11039
สุพรรณบุรี	-11040
เทอร์เนทีฟ	-11041
เปิดทําการ	-11042
และแม่น้ํา	-11043
ในโอลิมปิก	-11044
▁ผลิตภัณฑ์	-11045
▁โดยสามารถ	-11046
ผู้สนับสนุน	-11047
เพลย์สเตชัน	-11048
▁ของออริกอน	-11049
ขึ้นในวันที่	-11050
ในทวีปเอเชีย	-11051
แบบแบ่งเขตได้	-11052
▁คนทั่วประเทศ	-11053
การ์ตูนญี่ปุ่น	-11054
เยาวชนแห่งชาติ	-11055
มหาสมุทรอินเดีย	-11056
▁เมืองอินส์บรุค	-11057
ตอนกลางของประเทศ	-11058
สังคมนิยมโซเวียต	-11059
▁เขตการเลือกตั้ง	-11060
da	-11061
py	-11062
ve	-11063
ฎี	-11064
for	-11065
ner	-11066
yll	-11067
ตุล	-11068
บอง	-11069
สท์	-11070
ออม	-11071
เชย	-11072
แสต	-11073
โลน	-11074
▁0-	-11075
▁ผี	-11076
ครอส	-11077
คุมิ	-11078
จนส์	-11079
ปาร์	-11080
ราบล	-11081
ลิ้น	-11082
ันดร	-11083
โกลา	-11084
▁har	-11085
▁utc	-11086
▁ฟอง	-11087
คย็อง	-11088
ชาร์ท	-11089
ดูดาว	-11090
ท์เลค	-11091
ลัพธ์	-11092
สุสาน	-11093
ักษณ์	-11094
เสริญ	-11095
แกร่ง	-11096
้าราช	-11097
▁live	-11098
▁magn	-11099
▁that	-11100
▁ฉัตร	-11101
คอนสแต	-11102
ค้าขาย	-11103
จักรภพ	-11104
ที่ส่ง	-11105
แนวนอน	-11106
ในสาขา	-11107
ไว้ว่า	-11108
▁heart	-11109
▁คริสต	-11110
▁ภาษาส	-11111
▁สัญญา	-11112
▁เพอร์	-11113
johnson	-11114
ของชาติ	-11115
อิสรภาพ	-11116
ฮ่องสอน	-11117
เรื่อยๆ	-11118
epenthes	-11119
ของเซลล์	-11120
ทิศเหนือ	-11121
ออกผลงาน	-11122
▁records	-11123
กลุ่มภาษา	-11124
บริเวณที่	-11125
ผสมพันธุ์	-11126
ลูมิเนียม	-11127
อยู่ภายใน	-11128
โพธิสัตว์	-11129
จะมีลักษณะ	-11130
ติดทีมชาติ	-11131
ปลงพระชนม์	-11132
เต็มไปด้วย	-11133
แทนที่ด้วย	-11134
มาตั้งแต่ปี	-11135
สภาพแวดล้อม	-11136
เซิร์ฟเวอร์	-11137
▁แห่งอังกฤษ	-11138
▁ในบางครั้ง	-11139
ก่อนหน้านั้น	-11140
ทรงครองราชย์	-11141
วัดในจังหวัด	-11142
▁เป็นโครงการ	-11143
แชมเปียนส์ลีก	-11144
การเรียนการสอน	-11145
จัดขึ้นในวันที่	-11146
▁เป็นพระพุทธรูป	-11147
▁และได้รับเลือก	-11148
▁ครอบคลุมพื้นที่	-11149
ทึ	-11150
บ์	-11151
ผิ	-11152
ิท	-11153
ett	-11154
mus	-11155
ทนา	-11156
บิช	-11157
บิต	-11158
มิก	-11159
รุส	-11160
ฤติ	-11161
ียณ	-11162
แบท	-11163
แสบ	-11164
▁av	-11165
▁jo	-11166
กลํา	-11167
ตุลา	-11168
นิคม	-11169
บรอด	-11170
ยะลา	-11171
หยาบ	-11172
หลี่	-11173
เจเน	-11174
เล็ต	-11175
แฮร์	-11176
▁ตรี	-11177
▁มาย	-11178
▁ออฟ	-11179
▁เกษ	-11180
▁เผย	-11181
ซิสโก	-11182
ตองกา	-11183
บริบท	-11184
ปล้อง	-11185
ระเข้	-11186
านั้น	-11187
เฮนรี	-11188
แบล็ก	-11189
▁ฟอร์	-11190
▁หญ้า	-11191
▁เบญจ	-11192
ของนาง	-11193
ตาริกา	-11194
นักเตะ	-11195
ผ่าตัด	-11196
มาเรีย	-11197
รับใช้	-11198
วิศวกร	-11199
สําราญ	-11200
เมเนีย	-11201
เวียร์	-11202
ในพม่า	-11203
์เซอร์	-11204
▁สีแดง	-11205
▁เวิร์	-11206
พีระมิด	-11207
มูลนิธิ	-11208
สิบเก้า	-11209
เข้มข้น	-11210
เจ้าฟ้า	-11211
แต่งกาย	-11212
ใหม่อีก	-11213
▁0000-0	-11214
▁ประการ	-11215
▁แมคอิน	-11216
การแพทย์	-11217
จากผลงาน	-11218
ชีวิตของ	-11219
ดิวิชั่น	-11220
สวนสัตว์	-11221
▁พรรคนี้	-11222
ข้อมูลจาก	-11223
ชื่อเรียก	-11224
ที่อันดับ	-11225
นิษฐานว่า	-11226
ผู้จัดการ	-11227
วรวงศ์เธอ	-11228
วิกตอเรีย	-11229
ออกแบบโดย	-11230
ในวงศ์นี้	-11231
▁ตัวอักษร	-11232
▁มีความจุ	-11233
▁วิทยาเขต	-11234
▁เขาเริ่ม	-11235
▁เนื้อไม้	-11236
กระชับมิตร	-11237
ถึงแก่กรรม	-11238
ท์เลคซิตี้	-11239
พากย์เสียง	-11240
อิลลินอยส์	-11241
▁พระราชทาน	-11242
▁โดยได้รับ	-11243
บรรดาศักดิ์	-11244
ลุ่มแม่น้ํา	-11245
▁ประเทศชิลี	-11246
▁และเป็นพระ	-11247
▁(0000-0000)	-11248
▁รูปทรงนี้มี	-11249
▁เป็นสตูดิโอ	-11250
ประจําเส้นทาง	-11251
▁ก่อนคริสตกาล	-11252
▁ประเทศปานามา	-11253
▁ละครโทรทัศน์	-11254
หญิงชาวญี่ปุ่น	-11255
▁การแข่งขันกีฬ	-11256
จัดขึ้นที่เมือง	-11257
สงครามกลางเมือง	-11258
เป็นที่มาของชื่อ	-11259
▁ของออริกอนชาร์ต	-11260
▁ในระหว่างวันที่	-11261
><	-11262
po	-11263
uz	-11264
ึล	-11265
่ญ	-11266
๊ย	-11267
anc	-11268
new	-11269
row	-11270
ura	-11271
ush	-11272
กาด	-11273
ชาต	-11274
ทาล	-11275
ปิง	-11276
พอก	-11277
พึง	-11278
ราส	-11279
เมม	-11280
เฮด	-11281
แจง	-11282
แอฟ	-11283
โศก	-11284
็อด	-11285
่ย์	-11286
▁hy	-11287
▁ye	-11288
▁ภา	-11289
กรุป	-11290
กวาด	-11291
จริต	-11292
นตัม	-11293
พ้อง	-11294
ฟีจี	-11295
ว่าว	-11296
เคีย	-11297
แยร์	-11298
ไซม์	-11299
▁mat	-11300
▁mon	-11301
▁กาย	-11302
▁ปัญ	-11303
▁พิก	-11304
▁รัช	-11305
▁สระ	-11306
▁สืบ	-11307
▁อาน	-11308
▁เสน	-11309
กันไป	-11310
จิมิน	-11311
ตอนบน	-11312
พะเยา	-11313
ฟลูออ	-11314
ัทลุง	-11315
เกราะ	-11316
เกียง	-11317
เศร้า	-11318
แลคซี	-11319
แล้วย	-11320
ํานัก	-11321
▁poly	-11322
▁กรัม	-11323
▁ขยาย	-11324
▁พงษ์	-11325
▁มงคล	-11326
ปลากระ	-11327
พ้นจาก	-11328
เบิร์ท	-11329
แข่งรถ	-11330
ได้นํา	-11331
▁model	-11332
▁trans	-11333
ขึ้นกับ	-11334
จักรวรร	-11335
จัดแสดง	-11336
ทันสมัย	-11337
มือกลอง	-11338
สามมิติ	-11339
สาหร่าย	-11340
อยู่ตาม	-11341
เป็นทีม	-11342
เป็นสาร	-11343
เลนเซีย	-11344
โอเวอร์	-11345
ใหม่ของ	-11346
ไม่ค่อย	-11347
่อสร้าง	-11348
▁และที่	-11349
ก้านครีบ	-11350
ตัวหนึ่ง	-11351
อาหารและ	-11352
เขตเมือง	-11353
▁กระทั่ง	-11354
▁คําร้อง	-11355
▁ซึ่งถูก	-11356
▁ส่วนมาก	-11357
▁ได้เป็น	-11358
ควบคุมของ	-11359
ประจําตัว	-11360
ราว์เซอร์	-11361
สมาร์ตโฟน	-11362
เติร์กเมน	-11363
เพชรบูรณ์	-11364
แบดมินตัน	-11365
▁ตะวันออก	-11366
▁พระชันษา	-11367
▁ว่ายน้ํา	-11368
▁เมืองทอง	-11369
ขึ้นอันดับ	-11370
จากการเป็น	-11371
ผู้ก่อตั้ง	-11372
ผู้ครองนคร	-11373
พยัญชนะต้น	-11374
พระราชพิธี	-11375
ร่วมมือกับ	-11376
▁ประกาศใช้	-11377
▁ในพื้นที่	-11378
ซี้ดเอฟเอ็ม	-11379
ที่หลากหลาย	-11380
แชมป์แทกทีม	-11381
▁จัดเป็นปลา	-11382
▁ซึ่งอยู่ใน	-11383
▁โดยจังหวัด	-11384
พิธีกรรายการ	-11385
▁สํานักพิมพ์	-11386
การท่องเที่ยว	-11387
ที่เกี่ยวข้อง	-11388
อยู่ภายใต้การ	-11389
เส้นเมริเดียน	-11390
ในอินโดนีเซีย	-11391
▁ภาษากลุ่มมอญ	-11392
ทวีปอเมริกาใต้	-11393
ในพรีเมียร์ลีก	-11394
ก่อตั้งขึ้นในปี	-11395
ได้รับการยอมรับ	-11396
▁เขาได้รับรางวัล	-11397
ux	-11398
ขง	-11399
นุ	-11400
"),	-11401
emy	-11402
eph	-11403
ref	-11404
ชิม	-11405
ตัก	-11406
อูน	-11407
ะงะ	-11408
ไอน	-11409
▁os	-11410
▁ty	-11411
ella	-11412
ster	-11413
ฎีกา	-11414
ประท	-11415
อีซี	-11416
ัสดุ	-11417
เดลี	-11418
ไอวี	-11419
่นัก	-11420
▁del	-11421
▁gen	-11422
▁mal	-11423
▁ซับ	-11424
▁บัง	-11425
▁โซน	-11426
บูลย์	-11427
พอยท์	-11428
เอียง	-11429
ําลัง	-11430
▁กุ้ง	-11431
▁บิ๊ก	-11432
▁ฟราน	-11433
กระโดด	-11434
กราฟิก	-11435
ของสาร	-11436
ตกชั้น	-11437
พบูลย์	-11438
พี่สาว	-11439
รสชาติ	-11440
สมเด็จ	-11441
โดยรอบ	-11442
▁กล้อง	-11443
▁นกกระ	-11444
▁ประชา	-11445
▁ศิลปะ	-11446
ของแข็ง	-11447
คาสเซิล	-11448
ทีมหญิง	-11449
วัยเด็ก	-11450
ศรีปทุม	-11451
สัดส่วน	-11452
สเบิร์ก	-11453
เพียงพอ	-11454
เส้นตรง	-11455
แห่งแรก	-11456
▁(0000–	-11457
▁0000),	-11458
▁สาเหตุ	-11459
กันในนาม	-11460
ดีที่สุด	-11461
มีจํานวน	-11462
รวมไปถึง	-11463
ระดับสูง	-11464
วิลเลียม	-11465
อายุน้อย	-11466
ฮอลลีวูด	-11467
เทควันโด	-11468
เวกเตอร์	-11469
▁นั่นคือ	-11470
▁บางชนิด	-11471
▁อาร์เอส	-11472
▁เป็นแนว	-11473
▁และเกาะ	-11474
ที่มีอยู่	-11475
นิการากัว	-11476
มัธยมปลาย	-11477
เจ้าเมือง	-11478
▁คาบสมุทร	-11479
▁วัฒนธรรม	-11480
กลายมาเป็น	-11481
เข้าสู่รอบ	-11482
เล่นฟุตบอล	-11483
▁ตามประกาศ	-11484
▁พระบรมราช	-11485
ชนิดหนึ่งใน	-11486
นาซีเยอรมนี	-11487
อุดมสมบูรณ์	-11488
▁และทีมชาติ	-11489
แห่งเบลเยียม	-11490
สิริราชสมบัติ	-11491
อัลบั้มชุดนี้	-11492
▁พรีเมียร์ลีก	-11493
▁เป็นนักดนตรี	-11494
▁เป็นเรื่องราว	-11495
▁ประเทศโรมาเนีย	-11496
▁เมืองเมลเบิร์น	-11497
ว่าการกระทรวงการ	-11498
di	-11499
gu	-11500
ิณ	-11501
โญ	-11502
ari	-11503
der	-11504
ita	-11505
ง่อ	-11506
ซือ	-11507
ทอย	-11508
ยิด	-11509
ยูร	-11510
เนย	-11511
▁cd	-11512
▁tv	-11513
▁ทิ	-11514
▁ปฏ	-11515
illa	-11516
ones	-11517
กอร์	-11518
ชมรม	-11519
ซีซี	-11520
ตราด	-11521
นนท์	-11522
นุษย	-11523
ปริง	-11524
พพาน	-11525
รอว์	-11526
เบ้ง	-11527
แผนก	-11528
ไทเป	-11529
ไบต์	-11530
▁ซอย	-11531
▁ดอน	-11532
▁ปาน	-11533
▁หาง	-11534
▁แมก	-11535
▁ไบร	-11536
จดจํา	-11537
ตะกอน	-11538
ทรมหา	-11539
ธิราช	-11540
ฝาแฝด	-11541
มันน์	-11542
ยอร์ค	-11543
ยุวชน	-11544
ฤษฎีก	-11545
เซลีน	-11546
เปาลู	-11547
เหวิน	-11548
ในตัว	-11549
ในร่ม	-11550
ไบแซน	-11551
▁ต่อม	-11552
▁ถั่ว	-11553
▁พรหม	-11554
▁ร็อก	-11555
▁วิศว	-11556
▁เสือ	-11557
ค่าของ	-11558
ชุมนุม	-11559
ถูกรวม	-11560
บรรทัด	-11561
ป่าไม้	-11562
ลิเบีย	-11563
ลึกลับ	-11564
วุยก๊ก	-11565
สปอร์ต	-11566
สําโรง	-11567
าสมัคร	-11568
เกษียณ	-11569
ใช้กัน	-11570
ของความ	-11571
จะเรียก	-11572
จิมินห์	-11573
ถือหุ้น	-11574
ถ่ายแบบ	-11575
มอเตอร์	-11576
มุขนายก	-11577
ยอดนิยม	-11578
เด็กและ	-11579
เพล็กซ์	-11580
โซโลมอน	-11581
▁การจัด	-11582
▁มนุษย์	-11583
▁เที่ยว	-11584
ข้อมูลปี	-11585
มีดังนี้	-11586
ลูกบาศก์	-11587
ลําเลียง	-11588
วิชั่นส์	-11589
สองครั้ง	-11590
หนึ่งว่า	-11591
เรียวยาว	-11592
และสัตว์	-11593
▁ทางด้าน	-11594
▁อยู่ที่	-11595
▁และภาษา	-11596
▁โดยเพลง	-11597
ซิลเวเนีย	-11598
อัสสัมชัญ	-11599
ัธยมศึกษา	-11600
ุลตร้าแมน	-11601
▁american	-11602
▁ผลเดี่ยว	-11603
▁แต่ต่อมา	-11604
นับตั้งแต่	-11605
ระหว่างถนน	-11606
เป็นประเทศ	-11607
ใกล้ชิดกับ	-11608
▁ซึ่งมีการ	-11609
▁รายพระนาม	-11610
▁อําเภอศรี	-11611
▁เปลือกต้น	-11612
▁แต่ไม่ได้	-11613
▁และรางวัล	-11614
ถูกเรียกว่า	-11615
ภาษาสันสกฤต	-11616
สัมพันธ์กับ	-11617
เครื่องจักร	-11618
เดือนมกราคม	-11619
เบราว์เซอร์	-11620
▁พระองค์จึง	-11621
▁เครื่องบิน	-11622
▁เอิร์ลแห่ง	-11623
ของสมเด็จพระ	-11624
ครองตําแหน่ง	-11625
ได้รับเอกราช	-11626
▁ทวีปแอฟริกา	-11627
ประมุขแห่งรัฐ	-11628
ประเทศเยอรมนี	-11629
กล้องโทรทรรศน์	-11630
โดยสํานักพิมพ์	-11631
ในประเทศอิตาลี	-11632
▁มีชื่อเล่นว่า	-11633
▁เป็นการจัดการ	-11634
ชื่อวิทยาศาสตร์	-11635
เดือนกุมภาพันธ์	-11636
ขึ้นเป็นครั้งที่	-11637
▁ใบประกอบแบบขนนก	-11638
,"	-11639
li	-11640
ms	-11641
ดม	-11642
ato	-11643
met	-11644
กิง	-11645
ฉุก	-11646
ซัก	-11647
ทอน	-11648
นวม	-11649
ภัส	-11650
มีย	-11651
มูน	-11652
หัด	-11653
อภิ	-11654
แฝง	-11655
▁li	-11656
▁จด	-11657
▁ชะ	-11658
stit	-11659
ซ่อม	-11660
ด้าม	-11661
ต้อน	-11662
พลัส	-11663
ุกระ	-11664
เบย์	-11665
แล็ง	-11666
▁ber	-11667
▁กฤษ	-11668
▁ปืน	-11669
▁ล่า	-11670
▁โรส	-11671
▁ไชย	-11672
ของปี	-11673
ดัชชี	-11674
ทาจิก	-11675
ภคินี	-11676
อาราม	-11677
อุทัย	-11678
ับถือ	-11679
ากว่า	-11680
เคชัน	-11681
เจอส์	-11682
เซนอล	-11683
ในจีน	-11684
▁long	-11685
จัดทํา	-11686
ชนชาติ	-11687
ภาคที่	-11688
อุตสาห	-11689
ามาจาก	-11690
เสพติด	-11691
เหลียว	-11692
แผนที่	-11693
ในช่อง	-11694
ให้ได้	-11695
▁black	-11696
▁count	-11697
▁เอชดี	-11698
▁แบล็ก	-11699
คู่แข่ง	-11700
ทําด้วย	-11701
นีเซียน	-11702
บัณฑิตย	-11703
ประพฤติ	-11704
ปรารถนา	-11705
ยวดยิ่ง	-11706
รับเชิญ	-11707
สามัคคี	-11708
หนองคาย	-11709
ะโมะโตะ	-11710
ัฐมนตรี	-11711
▁ปกครอง	-11712
▁พินอิน	-11713
▁ภาษากะ	-11714
กลุ่มของ	-11715
จูเนียร์	-11716
น่านน้ํา	-11717
ส่วนกลาง	-11718
และพัฒนา	-11719
โครงข่าย	-11720
โดยอาศัย	-11721
▁สัญชาติ	-11722
▁แผ่นดิน	-11723
กัวเตมาลา	-11724
คริสต์มาส	-11725
คอสตาริกา	-11726
บ้านเมือง	-11727
วรรณยุกต์	-11728
ศาสตร์และ	-11729
อํานาจของ	-11730
เนชั่นแนล	-11731
เรื่องที่	-11732
และเอเชีย	-11733
▁ซิงเกิ้ล	-11734
▁มียอดขาย	-11735
ค่าใช้จ่าย	-11736
มองเห็นได้	-11737
ในเวียดนาม	-11738
▁nepenthes	-11739
▁ที่สามารถ	-11740
▁ในปีนี้มี	-11741
เป็นสถานที่	-11742
แชมเปียนชิพ	-11743
▁ผู้ก่อตั้ง	-11744
▁เรียบเรียง	-11745
รีโอเดจาเนโร	-11746
ได้รับชัยชนะ	-11747
พุทธศตวรรษที่	-11748
เดือนมิถุนายน	-11749
▁หม่อมราชวงศ์	-11750
ของสโมสรฟุตบอล	-11751
ทีมชาติญี่ปุ่น	-11752
ในพระพุทธศาสนา	-11753
▁การลงประชามติ	-11754
ข้อมูลเกี่ยวกับ	-11755
ze	-11756
ณู	-11757
อช	-11758
อภ	-11759
inc	-11760
lin	-11761
คลอ	-11762
ดุง	-11763
ทูน	-11764
พาส	-11765
ุฒิ	-11766
เปญ	-11767
แคป	-11768
▁po	-11769
apan	-11770
คาเร	-11771
ถนัด	-11772
นติน	-11773
รมย์	-11774
หาดู	-11775
อะกิ	-11776
าริก	-11777
เซโก	-11778
เด็ด	-11779
เว็น	-11780
แจ่ม	-11781
โชติ	-11782
▁sal	-11783
▁แอส	-11784
กรุณา	-11785
ดิวซ์	-11786
มีรูป	-11787
สุขุม	-11788
หาสน์	-11789
ากรุง	-11790
เงียบ	-11791
เตือน	-11792
โปร่ง	-11793
ในสาข	-11794
▁ภัทร	-11795
นี้ใช้	-11796
พระบาง	-11797
ศรัทธา	-11798
สิบสาม	-11799
สเปอร์	-11800
อัลบัม	-11801
เธอยัง	-11802
เรียลล	-11803
แซ็กท์	-11804
แบรนด์	-11805
และใช้	-11806
▁dream	-11807
▁night	-11808
▁กรีฑา	-11809
▁สิทธิ	-11810
▁สุนทร	-11811
ของน้ํา	-11812
คีร์กีซ	-11813
ฉุกเฉิน	-11814
ลัตเวีย	-11815
อ้างถึง	-11816
และเกาะ	-11817
▁การทํา	-11818
▁และนาง	-11819
▁โดยเขา	-11820
ครีบหลัง	-11821
ชลประทาน	-11822
ทุกอย่าง	-11823
ฟลอเรนซ์	-11824
วันศุกร์	-11825
หรือเป็น	-11826
▁edition	-11827
▁กัมพูชา	-11828
▁ดิวิชัน	-11829
▁ผู้ซึ่ง	-11830
▁เป็นจุด	-11831
ของเขาคือ	-11832
ควบคุมการ	-11833
ติดกับรัฐ	-11834
ธาตุที่มี	-11835
บ่อยครั้ง	-11836
ภาษามลายู	-11837
อัตราส่วน	-11838
ไบแซนไทน์	-11839
▁วรรณกรรม	-11840
ละติจูดที่	-11841
อัลบั้มแรก	-11842
กําลังศึกษา	-11843
ที่ออกอากาศ	-11844
สร้างขึ้นใน	-11845
ในการประชุม	-11846
▁ฟิลิปปินส์	-11847
จากการประกวด	-11848
มีลักษณะเป็น	-11849
สุราษฎร์ธานี	-11850
เป็นอย่างมาก	-11851
ใกล้เคียงกัน	-11852
▁แต่เนื่องจาก	-11853
ถึงแก่อสัญกรรม	-11854
สภานิติบัญญัติ	-11855
▁ผู้พูดภาษานี้	-11856
▁ได้รับพระราชทาน	-11857
ao	-11858
fr	-11859
จล	-11860
ฮอ	-11861
och	-11862
กลี	-11863
ชี่	-11864
ญแจ	-11865
ฝาก	-11866
วนะ	-11867
สูบ	-11868
ห้อ	-11869
ฮิส	-11870
ิดล	-11871
โกน	-11872
โลส	-11873
▁ขา	-11874
▁คณ	-11875
▁หู	-11876
▁ฮู	-11877
idth	-11878
ซะวะ	-11879
ดีซี	-11880
นตร์	-11881
พฤกษ	-11882
ลัทธ	-11883
ลาร์	-11884
ล่วง	-11885
ว็อน	-11886
ห้อย	-11887
อรีน	-11888
ฮารา	-11889
ามัก	-11890
าลํา	-11891
เชิน	-11892
แก่ง	-11893
แท่ง	-11894
แอ็ก	-11895
▁max	-11896
▁บลู	-11897
▁ยิง	-11898
▁ไตร	-11899
ental	-11900
นิบาต	-11901
มังงะ	-11902
ลงสู่	-11903
ลันด์	-11904
วิกฤต	-11905
หิรัญ	-11906
ัณฑิต	-11907
าวะก์	-11908
เทรีย	-11909
ในลีก	-11910
▁วงษ์	-11911
▁อ่าน	-11912
ของเรา	-11913
ชนเผ่า	-11914
ถูกจับ	-11915
ทรงพระ	-11916
ทองแดง	-11917
ที่ให้	-11918
นากาโน	-11919
หนึ่งๆ	-11920
เถรวาท	-11921
▁คนคือ	-11922
▁มีฐาน	-11923
▁รักษา	-11924
▁หนุ่ม	-11925
▁เขามี	-11926
▁ในขณะ	-11927
iformes	-11928
ชื่นชอบ	-11929
ยูกันดา	-11930
สัมพันธ	-11931
ฮอร์โมน	-11932
ามาซากิ	-11933
▁ตามที่	-11934
▁แต่ได้	-11935
▁ในกรุง	-11936
วิทยาการ	-11937
เคียวโตะ	-11938
เนื้องอก	-11939
เมืองนี้	-11940
▁ครีบหาง	-11941
▁ซึ่งอาจ	-11942
▁วงดนตรี	-11943
▁สิ้นสุด	-11944
▁หน้ารูป	-11945
▁เมืองมี	-11946
ซัลวาดอร์	-11947
ประเภทนี้	-11948
อําเภอบาง	-11949
เป็นพิเศษ	-11950
เอลิซาเบธ	-11951
แดนติดกับ	-11952
แบบจําลอง	-11953
แยกออกจาก	-11954
แอนดรอยด์	-11955
ได้ทําการ	-11956
▁เป็นเวลา	-11957
▁เพื่อใช้	-11958
กันว่าเป็น	-11959
นี้ทั้งหมด	-11960
บุนเดสลีกา	-11961
ป้องกันการ	-11962
ผลประโยชน์	-11963
อย่างเดียว	-11964
อัครราชทูต	-11965
เขตพื้นที่	-11966
▁เป็นแหล่ง	-11967
ร่วมก่อตั้ง	-11968
วันพฤหัสบดี	-11969
▁ใช้ชื่อว่า	-11970
ระหว่างเมือง	-11971
เช่นเดียวกัน	-11972
▁กองทัพอากาศ	-11973
▁คณะรัฐมนตรี	-11974
▁เมืองนากาโน	-11975
คว้าเหรียญทอง	-11976
ผู้เข้าประกวด	-11977
▁ภายใต้สังกัด	-11978
ประเทศฝรั่งเศส	-11979
วอลเลย์บอลยุโรป	-11980
▁ก่อตั้งเมื่อปี	-11981
นิยายวิทยาศาสตร์	-11982
▁จังหวัดสุรินทร์	-11983
▁ทางตะวันตกเฉียง	-11984
"<	-11985
rt	-11986
ฤๅ	-11987
อั	-11988
▁‘	-11989
ala	-11990
บอต	-11991
บัก	-11992
วีร	-11993
สัท	-11994
ูไร	-11995
แต้	-11996
โนส	-11997
็อล	-11998
▁dv	-11999
▁er	-12000
▁หง	-12001
▁ไค	-12002
ings	-12003
irst	-12004
ซิลิ	-12005
ดําร	-12006
ทรอย	-12007
ทแยง	-12008
ย้อม	-12009
วีนา	-12010
สนาน	-12011
ันด์	-12012
เก่ง	-12013
เซกา	-12014
เต้า	-12015
เป่า	-12016
▁คอล	-12017
▁ซอฟ	-12018
▁ซาก	-12019
▁นิก	-12020
▁สเป	-12021
▁เบร	-12022
▁ไว้	-12023
style	-12024
ขนิษฐ	-12025
ละออง	-12026
หันมา	-12027
โฮเทป	-12028
็คสัน	-12029
▁เพรส	-12030
▁แพร่	-12031
▁แฮร์	-12032
ข้อต่อ	-12033
ด้านใน	-12034
ตรงตัว	-12035
ตัวแปร	-12036
แชนแนล	-12037
แอฟริก	-12038
ในเชิง	-12039
ได้ตาม	-12040
ดําน้ํา	-12041
บุตรชาย	-12042
ประจําร	-12043
มีอาการ	-12044
ยศาสตร์	-12045
ราบลุ่ม	-12046
ร็อคแมน	-12047
เป็นคํา	-12048
เห็นชอบ	-12049
ไนเจอร์	-12050
▁จะต้อง	-12051
▁และถนน	-12052
ตูนิเซีย	-12053
ยิ่งใหญ่	-12054
สมัครรับ	-12055
อยู่ด้วย	-12056
อินเดียน	-12057
เซโกวีนา	-12058
▁version	-12059
▁อาทิตย์	-12060
▁เท่ากับ	-12061
▁เผยแพร่	-12062
▁แต่งโดย	-12063
การออกแบบ	-12064
ค่อนไปทาง	-12065
อาชญากรรม	-12066
อุตรดิตถ์	-12067
ีอาระเบีย	-12068
เรียกร้อง	-12069
แล้วเสร็จ	-12070
โฮจิมินห์	-12071
ไปทั่วโลก	-12072
▁ดิวิชั่น	-12073
▁เมืองลิล	-12074
ของเยอรมนี	-12075
ตรงกันข้าม	-12076
มหาเสนาบดี	-12077
เรสต์ลิงเฟ	-12078
แห่งอังกฤษ	-12079
▁ตารางเมตร	-12080
▁ทวีปยุโรป	-12081
▁ที่อยู่ใน	-12082
▁อําเภอแม่	-12083
กุฎราชกุมาร	-12084
ของนักศึกษา	-12085
ลิงคินพาร์ก	-12086
อัลบั้มเพลง	-12087
เริ่มต้นจาก	-12088
เรียกกันว่า	-12089
▁กลุ่มอาการ	-12090
▁จัดขึ้นโดย	-12091
▁เอ็ดเวิร์ด	-12092
การทํางานของ	-12093
ที่มีพื้นที่	-12094
พระองค์เดียว	-12095
▁ขึ้นอยู่กับ	-12096
ตระกูลภาษาจีน	-12097
ในประเทศเวียดนาม	-12098
▁โอลิมปิกฤดูร้อน	-12099
ee	-12100
ja	-12101
สอ	-12102
ham	-12103
จุง	-12104
ฉีด	-12105
ซาย	-12106
ติย	-12107
นรก	-12108
บอด	-12109
ภาว	-12110
ร่า	-12111
ลอม	-12112
สตร	-12113
อิฐ	-12114
อีส	-12115
โภช	-12116
โมย	-12117
ไดร	-12118
▁ep	-12119
▁ซิ	-12120
ound	-12121
ront	-12122
กะได	-12123
ก้อง	-12124
ค่ํา	-12125
ป่อง	-12126
สปีด	-12127
หมวก	-12128
เยซู	-12129
ไซน์	-12130
ไทด์	-12131
ไฟฟ์	-12132
็ได้	-12133
▁lin	-12134
▁net	-12135
▁pop	-12136
▁พัก	-12137
▁ฟลอ	-12138
▁เหง	-12139
▁โบล	-12140
ซิมส์	-12141
บรรพ์	-12142
ฮาร์ต	-12143
ฮินดี	-12144
เชียร	-12145
และใน	-12146
โอนี้	-12147
▁ซีดี	-12148
▁ดาร์	-12149
▁ทะกะ	-12150
▁บ้าง	-12151
▁รุ่ง	-12152
▁สกาย	-12153
▁สรุป	-12154
▁เห็น	-12155
▁เอลิ	-12156
.0000)	-12157
weight	-12158
จ๊กก๊ก	-12159
ซิตคอม	-12160
ตินิยม	-12161
ที่ติด	-12162
ที่นี่	-12163
บทเพลง	-12164
บอลติก	-12165
ลูกค้า	-12166
วันพุธ	-12167
วีดีโอ	-12168
เพศผู้	-12169
ในระยะ	-12170
ให้ใช้	-12171
็อกจาก	-12172
▁ประดิ	-12173
▁เกล็ด	-12174
▁เขาก็	-12175
กายอานา	-12176
ผีเสื้อ	-12177
ลงคะแนน	-12178
วิตามิน	-12179
ศาลเจ้า	-12180
ส่วนที่	-12181
หิมาลัย	-12182
อย่างไร	-12183
เฉพาะใน	-12184
แต่นั้น	-12185
แอคชั่น	-12186
▁กฎหมาย	-12187
▁และอาจ	-12188
▁โดยถูก	-12189
ซาราวะก์	-12190
ดยุกแห่ง	-12191
ปราบปราม	-12192
มุ่งหน้า	-12193
▁ฉบับที่	-12194
▁ทั้งคู่	-12195
▁ภาษานี้	-12196
ซัปโปะโระ	-12197
นี้อยู่ใน	-12198
พจนานุกรม	-12199
รวมตัวกัน	-12200
อัครมเหสี	-12201
ในฐานะผู้	-12202
▁พระมเหสี	-12203
▁สําเนียง	-12204
▁เชื่อว่า	-12205
▁ไทยแลนด์	-12206
คนหนึ่งของ	-12207
บรรณาธิการ	-12208
บอสเนียและ	-12209
ภาษาศาสตร์	-12210
แพร่กระจาย	-12211
▁ยาวประมาณ	-12212
▁สีน้ําตาล	-12213
▁เขาได้รับ	-12214
การก่อสร้าง	-12215
ชื่อว่าเป็น	-12216
อดีตจังหวัด	-12217
▁ภาษาอังกฤษ	-12218
ที่สําคัญคือ	-12219
ศูนย์กลางของ	-12220
แชมเปี้ยนชิพ	-12221
แต่งตั้งเป็น	-12222
ในการพิจารณา	-12223
▁เป็นทะเลสาบ	-12224
▁เพลย์สเตชัน	-12225
▁เริ่มต้นที่	-12226
นักท่องเที่ยว	-12227
อัลเทอร์เนทีฟ	-12228
เฮอร์เซโกวีนา	-12229
▁ชีวิตส่วนตัว	-12230
▁เจ้าจอมมารดา	-12231
ที่รู้จักกันดี	-12232
หนึ่งของประเทศ	-12233
เพียงชนิดเดียว	-12234
▁ประเทศฮังการี	-12235
▁เป็นฤดูกาลที่	-12236
สนามกีฬาหลักของ	-12237
▁เป็นเมืองในรัฐ	-12238
ได้รับอิทธิพลจาก	-12239
!!	-12240
0-	-12241
ih	-12242
jo	-12243
jp	-12244
sy	-12245
ฟ้	-12246
อค	-12247
chn	-12248
ode	-12249
ora	-12250
rol	-12251
uel	-12252
กลู	-12253
ชัว	-12254
ชุง	-12255
บัต	-12256
วาว	-12257
สไป	-12258
เคส	-12259
แซง	-12260
ไวย	-12261
▁je	-12262
▁อั	-12263
arth	-12264
ever	-12265
itch	-12266
outh	-12267
ด้าย	-12268
ถูกร	-12269
ทวาร	-12270
ปราศ	-12271
ฝ้าย	-12272
ฟิจิ	-12273
มีผล	-12274
เกรต	-12275
▁cal	-12276
▁dav	-12277
▁sil	-12278
▁ซาม	-12279
▁อัม	-12280
▁ฮิล	-12281
▁เทร	-12282
ของเข	-12283
คุปต์	-12284
นกกระ	-12285
ฝีปาก	-12286
ฮานอย	-12287
เมอิก	-12288
แอฟริ	-12289
▁gram	-12290
▁your	-12291
▁จารุ	-12292
▁นิติ	-12293
▁พริก	-12294
▁สมิธ	-12295
ของทาง	-12296
จระเข้	-12297
ตอบแทน	-12298
นะงะวะ	-12299
ผักไหม	-12300
พิจารณ	-12301
มีทั้ง	-12302
ยิงธนู	-12303
ราชกิจ	-12304
ฤหาสน์	-12305
สืบสวน	-12306
เลโซโท	-12307
แยกจาก	-12308
แล้วจะ	-12309
แสตมป์	-12310
โชซ็อน	-12311
โซมาลี	-12312
▁นิโคล	-12313
▁ยังคง	-12314
ความไม่	-12315
ชนกลุ่ม	-12316
พักผ่อน	-12317
ยกระดับ	-12318
และน้ํา	-12319
โรงละคร	-12320
▁christ	-12321
▁จําพวก	-12322
▁บราซิล	-12323
▁เดิมที	-12324
national	-12325
ดําบรรพ์	-12326
ทํางานใน	-12327
มินทรมหา	-12328
ฤดูใบไม้	-12329
อย่างสูง	-12330
ออกฤทธิ์	-12331
อุปถัมภ์	-12332
ารัสเซีย	-12333
เซาเปาลู	-12334
เป็นธาตุ	-12335
ไม่มีการ	-12336
▁กาแลคซี	-12337
▁น้ําตาล	-12338
▁มวยสากล	-12339
ของฟาโรห์	-12340
ครั้งใหญ่	-12341
ความสะดวก	-12342
ชาวฮ่องกง	-12343
ประเภทชาย	-12344
วันอังคาร	-12345
สถานศึกษา	-12346
เวิลด์คัพ	-12347
▁ใช้ในการ	-12348
▁ในช่วงปี	-12349
▁ในรัฐบาล	-12350
กําแพงเพชร	-12351
จบการศึกษา	-12352
ทั้งหมดของ	-12353
ระดับอาชีพ	-12354
อยู่อันดับ	-12355
อิทธิพลต่อ	-12356
▁อันดับที่	-12357
คนสําคัญของ	-12358
ทิศตะวันออก	-12359
อเนกประสงค์	-12360
▁ถือว่าเป็น	-12361
▁เหรียญเงิน	-12362
กองทัพบกช่อง	-12363
ครั้งสุดท้าย	-12364
เข้าฉายในปีค	-12365
▁ก่อนหน้านี้	-12366
▁เป็นนักกีฬา	-12367
▁และออกอากาศ	-12368
กัวลาลัมเปอร์	-12369
เกิดขึ้นเมื่อ	-12370
อยู่ในปัจจุบัน	-12371
ในวงการบันเทิง	-12372
▁จนเสด็จสวรรคต	-12373
▁มีลักษณะคล้าย	-12374
▁จังหวัดสุโขทัย	-12375
ที่เก่าแก่ที่สุด	-12376
--	-12377
nd	-12378
zy	-12379
งุ	-12380
ada	-12381
net	-12382
ody	-12383
ครา	-12384
ฉวน	-12385
ดาม	-12386
ร้อ	-12387
เจร	-12388
เชฟ	-12389
โคม	-12390
▁"0	-12391
▁da	-12392
▁iv	-12393
onom	-12394
ติ้ง	-12395
วยร์	-12396
หวัด	-12397
ัชชา	-12398
ุกซ์	-12399
เสนี	-12400
โตริ	-12401
ในยุ	-12402
ไรส์	-12403
▁red	-12404
▁str	-12405
▁sub	-12406
▁wom	-12407
▁ออล	-12408
▁เพศ	-12409
▁เฮล	-12410
ประสม	-12411
พิสัย	-12412
ภาชนะ	-12413
มาชิก	-12414
ระฟ้า	-12415
วิชัย	-12416
หลั่ง	-12417
ักษัย	-12418
าระบบ	-12419
เทนโด	-12420
แบงก์	-12421
▁acid	-12422
▁ข่าว	-12423
▁สวัส	-12424
▁โจโฉ	-12425
ก่อนจะ	-12426
ของเกม	-12427
คันทรี	-12428
ถอนตัว	-12429
ที่มัก	-12430
ทําได้	-12431
พูดถึง	-12432
ลูกสาว	-12433
เป็นใบ	-12434
แปรรูป	-12435
ได้ส่ง	-12436
ไตรภาค	-12437
็คชั่น	-12438
▁ดิออน	-12439
▁อนึ่ง	-12440
▁ในปีพ	-12441
ต่างหาก	-12442
มะพร้าว	-12443
ราชมงคล	-12444
โลกรุ่น	-12445
▁คริสโต	-12446
▁และทรง	-12447
จะสามารถ	-12448
จะอยู่ใน	-12449
พิธีเปิด	-12450
ภาษาสเปน	-12451
รากศัพท์	-12452
สรรเสริญ	-12453
ิมนาสติก	-12454
เกิดเป็น	-12455
เพลงป็อป	-12456
ไฮโดรเจน	-12457
▁ภาษาจีน	-12458
การประชุม	-12459
ประกอบการ	-12460
หลักเกณฑ์	-12461
หลุยส์ที่	-12462
อักษรสากล	-12463
เนื้อเพลง	-12464
ในระหว่าง	-12465
▁ถูกค้นพบ	-12466
▁สร้างจาก	-12467
▁ออสเตรีย	-12468
▁เป็นทั้ง	-12469
▁เวอร์ชัน	-12470
ของประชาชน	-12471
ปรมินทรมหา	-12472
พระราชวงศ์	-12473
พฤกษศาสตร์	-12474
หมายถึงการ	-12475
เก็บข้อมูล	-12476
เครื่องเทศ	-12477
เป็นประจํา	-12478
เส้นประสาท	-12479
แห่งเอเชีย	-12480
▁ออกแบบโดย	-12481
▁เป็นสะพาน	-12482
เบิร์ทวิลล์	-12483
▁กล้ามเนื้อ	-12484
▁ประเทศเปรู	-12485
▁ลักษณะเป็น	-12486
▁ใช้สําหรับ	-12487
ทัวร์นาเมนต์	-12488
▁(0000–0000)	-12489
▁ปัจจุบันเขา	-12490
เป็นจักรพรรดิ	-12491
เสียชีวิตในปี	-12492
การเปลี่ยนแปลง	-12493
▁เป็นไม้เลื้อย	-12494
▁แบ่งออกได้เป็น	-12495
▁ในประเทศอิตาลี	-12496
เนื้อหาเกี่ยวกับ	-12497
เส้นเมริเดียนแรก	-12498
▁จังหวัดปทุมธานี	-12499
fe	-12500
โถ	-12501
amb	-12502
cor	-12503
don	-12504
uss	-12505
ขจร	-12506
ขวด	-12507
ซิว	-12508
ปวง	-12509
เรศ	-12510
แง่	-12511
▁ลด	-12512
▁สึ	-12513
กลืน	-12514
ข้อส	-12515
ทะกะ	-12516
ปลัด	-12517
ฟรีด	-12518
สิคว	-12519
สเปก	-12520
หงส์	-12521
อบรม	-12522
ายุค	-12523
ิร์ม	-12524
ุกูล	-12525
เกรส	-12526
เมจิ	-12527
๊กซ์	-12528
▁gmm	-12529
▁กวี	-12530
▁ซัง	-12531
▁ราม	-12532
▁ฮิว	-12533
atory	-12534
ดูรัส	-12535
ต้าร์	-12536
นายพล	-12537
บูรพา	-12538
ปอนด์	-12539
ภาษาย	-12540
มหิดล	-12541
เคารพ	-12542
เพดาน	-12543
เหล้า	-12544
ในซีก	-12545
▁ฮ่อง	-12546
▁โคดะ	-12547
▁ไฟล์	-12548
กระดาน	-12549
การนํา	-12550
ของพวก	-12551
ชีวภาพ	-12552
ชํานาญ	-12553
ดอร์รา	-12554
ดึงดูด	-12555
ถนนสาย	-12556
ทิศใต้	-12557
นิทรรศ	-12558
นิพพาน	-12559
พยางค์	-12560
สามสิบ	-12561
หาดูใจ	-12562
หูพจน์	-12563
เคลือบ	-12564
โยะโกะ	-12565
ของค่าย	-12566
ของท่าน	-12567
คําขวัญ	-12568
นิยมใช้	-12569
พระธาตุ	-12570
พลเมือง	-12571
รุ่นที่	-12572
ละติจูด	-12573
สีคล้ํา	-12574
เป็นเขต	-12575
▁กูเกิล	-12576
▁ตัวย่อ	-12577
▁นาฬิกา	-12578
▁มีอายุ	-12579
▁ไม่ใช่	-12580
ของบุคคล	-12581
ย่างกุ้ง	-12582
สับสนกับ	-12583
เขียนภาพ	-12584
เซเรียอา	-12585
เพลย์ออฟ	-12586
เวลาสากล	-12587
ในการใช้	-12588
ให้มีการ	-12589
▁airport	-12590
▁จึงเป็น	-12591
▁ในระดับ	-12592
▁ไต้หวัน	-12593
คีย์บอร์ด	-12594
ที่ไม่ใช่	-12595
รสเปรี้ยว	-12596
เบลเยี่ยม	-12597
เม็ดเลือด	-12598
แข็งแกร่ง	-12599
ในหนังสือ	-12600
ในเขตร้อน	-12601
▁รัฐมนตรี	-12602
▁เป็นเรือ	-12603
▁เมืองแอล	-12604
ขององค์การ	-12605
ทํางานเป็น	-12606
ระบบประสาท	-12607
อัลบั้มนี้	-12608
▁และอยู่ใน	-12609
กิโลเมตรที่	-12610
บังคับบัญชา	-12611
รอบคัดเลือก	-12612
องค์สุดท้าย	-12613
เป็นผู้เล่น	-12614
ฉบับภาพยนตร์	-12615
ประกอบธุรกิจ	-12616
พระราชกฤษฎีก	-12617
▁association	-12618
▁เป็นเจ้าของ	-12619
จบการศึกษาจาก	-12620
ชิงแชมป์สโมสร	-12621
มากเป็นอันดับ	-12622
แต่งทํานองโดย	-12623
▁มีส่วนประกอบ	-12624
▁เป็นเพลงชาติ	-12625
ซาอุดีอาระเบีย	-12626
ที่เป็นที่นิยม	-12627
แสดงในภาพยนตร์	-12628
▁ที่ประสูติแต่	-12629
▁เป็นชื่อเรียก	-12630
▁จัดขึ้นในเมือง	-12631
▁มีผลงานการแสดง	-12632
ประจําเส้นทางคือ	-12633
ชง	-12634
ฮุ	-12635
▁*	-12636
▁~	-12637
tna	-12638
ขิต	-12639
ปิน	-12640
วอด	-12641
วิง	-12642
อาง	-12643
แตง	-12644
โรย	-12645
▁pa	-12646
▁หร	-12647
ille	-12648
ocal	-12649
กรูป	-12650
กิติ	-12651
ขโมย	-12652
ชุ่ม	-12653
ซ้อม	-12654
ดยุก	-12655
ตั๋ง	-12656
ปราย	-12657
ปั่น	-12658
ผนวก	-12659
ผลัก	-12660
ม่าน	-12661
รูซา	-12662
สกาย	-12663
โบว์	-12664
โพลา	-12665
่างๆ	-12666
▁don	-12667
▁mor	-12668
▁org	-12669
▁ver	-12670
▁กาล	-12671
▁เซา	-12672
▁แพน	-12673
ience	-12674
ittle	-12675
นิกซ์	-12676
ฝึกฝน	-12677
ยูเอส	-12678
ระนอง	-12679
ระเหย	-12680
สันต์	-12681
ฮามาส	-12682
ิเชีย	-12683
โซโทป	-12684
▁(0.0	-12685
▁หนัง	-12686
▁หลี่	-12687
▁เข็ม	-12688
กับทีม	-12689
ควบรวม	-12690
ชุดแรก	-12691
พัทลุง	-12692
มะนิลา	-12693
อะมิโน	-12694
เอี๋ยน	-12695
และเขต	-12696
ในชั้น	-12697
▁ภาษาก	-12698
▁มารดา	-12699
▁เฮนรี	-12700
▁แมทช์	-12701
คว้าดาว	-12702
ค้างคาว	-12703
ดิวัวร์	-12704
ตุลาการ	-12705
ทั้งสี่	-12706
ส่วนต่อ	-12707
อําเภอก	-12708
▁ทีมนี้	-12709
▁ลําดับ	-12710
▁และทีม	-12711
▁และทํา	-12712
▁ในเวลา	-12713
กว่านั้น	-12714
คะนะงะวะ	-12715
เดิมเป็น	-12716
เลียนแบบ	-12717
การแสดงสด	-12718
ประกาศใช้	-12719
ภาคใต้ของ	-12720
สมุทรสาคร	-12721
ส่วนบุคคล	-12722
เชิงพิกัด	-12723
เทียบเท่า	-12724
ในการผลิต	-12725
▁ที่สร้าง	-12726
▁โรแมนติก	-12727
ของอียิปต์	-12728
ป้องกันตัว	-12729
พื้นฐานของ	-12730
ฟ้าคว้าดาว	-12731
อําเภอบ้าน	-12732
ในฝรั่งเศส	-12733
▁ซีซั่นที่	-12734
▁ลําดับที่	-12735
▁เชื่อมต่อ	-12736
ความเสียหาย	-12737
ดึกดําบรรพ์	-12738
ผ่านเข้ารอบ	-12739
ภูมิคุ้มกัน	-12740
อยู่ห่างจาก	-12741
อเมริกากลาง	-12742
ในสมเด็จพระ	-12743
▁ขยายพันธุ์	-12744
▁ดอกเป็นดอก	-12745
▁บทประพันธ์	-12746
▁ปลาน้ําจืด	-12747
กระเพาะอาหาร	-12748
▁ตั้งอยู่บ้าน	-12749
ประกอบภาพยนตร์	-12750
เป็นครั้งแรกใน	-12751
ที่ได้รับรางวัล	-12752
ฤดูหนาวครั้งที่	-12753
สโมสรวอลเลย์บอล	-12754
สถานีรถไฟกรุงเทพ	-12755
เป็นผู้จัดการทีม	-12756
▁ในทางคณิตศาสตร์	-12757
ดล	-12758
สซ	-12759
▁#	-12760
▁๓	-12761
bar	-12762
uck	-12763
ก่า	-12764
ถาป	-12765
บาธ	-12766
บีต	-12767
ยุน	-12768
วีน	-12769
ังข	-12770
ูกู	-12771
เลฟ	-12772
แด่	-12773
แทบ	-12774
โคะ	-12775
▁kh	-12776
▁ko	-12777
▁yo	-12778
▁คม	-12779
▁อภ	-12780
ange	-12781
atus	-12782
ople	-12783
orge	-12784
ตรัม	-12785
ตินา	-12786
ทีโอ	-12787
พลัน	-12788
มหาย	-12789
อารา	-12790
านต์	-12791
ามาร	-12792
เบรก	-12793
▁(0)	-12794
▁cap	-12795
▁จับ	-12796
▁บุช	-12797
▁ศึก	-12798
▁ส้ม	-12799
▁เวน	-12800
▁โอม	-12801
press	-12802
กรีฑา	-12803
ดัชนี	-12804
ดีเซล	-12805
นาครี	-12806
ผลิตร	-12807
ฟร็อง	-12808
ระงับ	-12809
ันที่	-12810
โพรโท	-12811
▁bill	-12812
▁phil	-12813
▁rich	-12814
▁ช่าง	-12815
▁วิชา	-12816
▁เลิฟ	-12817
ของเทพ	-12818
จิเนีย	-12819
ตัวนํา	-12820
ถูกยุบ	-12821
ที่พัก	-12822
นักสู้	-12823
วารสาร	-12824
ินีนาถ	-12825
เกลียว	-12826
ในห้อง	-12827
▁00.0%	-12828
▁media	-12829
▁จึงมี	-12830
▁นําไป	-12831
▁ฟิลิป	-12832
▁ศิษย์	-12833
▁สังคม	-12834
▁เออร์	-12835
▁ในชุด	-12836
ชั้นนอก	-12837
ต้นน้ํา	-12838
ธงต่างๆ	-12839
บกพร่อง	-12840
บุคลากร	-12841
ผลลัพธ์	-12842
เด่นคือ	-12843
เต้นรํา	-12844
เป็นช่อ	-12845
แตกเป็น	-12846
▁ชุดที่	-12847
▁ตัวหนา	-12848
▁ตํารวจ	-12849
▁นายแบบ	-12850
▁ปลายใบ	-12851
▁พันธุ์	-12852
▁ส่วนใน	-12853
▁อํานวย	-12854
▁ฮ่องกง	-12855
คอมเมดี้	-12856
คําศัพท์	-12857
วงศ์ย่อย	-12858
เขียนว่า	-12859
เวลาสั้น	-12860
เอ็มทีวี	-12861
ใช้เรียก	-12862
ในอําเภอ	-12863
ไม่ปรากฏ	-12864
▁จักรยาน	-12865
▁เป็นชุด	-12866
▁เส้นนี้	-12867
▁โดยแสดง	-12868
▁โดยในปี	-12869
entagonal	-12870
ชีวิตอยู่	-12871
นิทรรศการ	-12872
ประโยคแบบ	-12873
เปิดตัวใน	-12874
ไม้ยืนต้น	-12875
▁ก่อสร้าง	-12876
▁ฮามาซากิ	-12877
▁เป็นภาวะ	-12878
▁และผลงาน	-12879
ทิศตะวันตก	-12880
ประเทศสเปน	-12881
สถาปนาเป็น	-12882
หลวงพระบาง	-12883
เป็นตัวแทน	-12884
ในโรงเรียน	-12885
▁ของบริษัท	-12886
▁บาสเกตบอล	-12887
▁ลักษณะของ	-12888
▁ไม่สามารถ	-12889
สังเกตการณ์	-12890
ในสงครามโลก	-12891
▁กลุ่มภาษาม	-12892
▁ขณะอายุได้	-12893
▁จากนั้นจึง	-12894
การจัดอันดับ	-12895
ขนาดเล็กกว่า	-12896
ที่สูงที่สุด	-12897
เดือนกรกฎาคม	-12898
▁จัดจําหน่าย	-12899
▁ประพันธ์โดย	-12900
▁เทศบาลเมือง	-12901
▁เป็นพระโอรส	-12902
เทพปกรณัมกรีก	-12903
เอกอัครราชทูต	-12904
▁ซึ่งได้รับการ	-12905
▁ทางตะวันตกของ	-12906
▁รอบชิงชนะเลิศ	-12907
▁สถานที่สําคัญ	-12908
แผ่นเสียงทองคํา	-12909
▁เป็นสนามฟุตบอล	-12910
การจัดการแข่งขัน	-12911
▁มีความยาวประมาณ	-12912
ος	-12913
พก	-12914
ิร	-12915
+00	-12916
day	-12917
ird	-12918
คนต	-12919
คาง	-12920
ทูบ	-12921
พอด	-12922
อัพ	-12923
ฮวา	-12924
ฮอง	-12925
ูลู	-12926
เบอ	-12927
เวฟ	-12928
แชล	-12929
▁..	-12930
ason	-12931
ross	-12932
คราช	-12933
คลาย	-12934
งะนะ	-12935
ญจน์	-12936
ดราก	-12937
ถ่วง	-12938
พลับ	-12939
พอดี	-12940
พิทย	-12941
วงษ์	-12942
สแกน	-12943
หรี่	-12944
อรุณ	-12945
ัณฑะ	-12946
าวาส	-12947
ิทยา	-12948
เท็จ	-12949
เนื้	-12950
เพิล	-12951
เฟรน	-12952
แป้น	-12953
ไลนา	-12954
์ตูน	-12955
▁ออน	-12956
▁เรน	-12957
คงที่	-12958
ชีวนะ	-12959
ปรีซ์	-12960
พังงา	-12961
ภาษณ์	-12962
มนตร์	-12963
วรรค์	-12964
โอลิน	-12965
ในแบบ	-12966
คํานี้	-12967
ตัวนี้	-12968
บอสตัน	-12969
พรินซ์	-12970
ยอดฟ้า	-12971
อนามัย	-12972
าวิทยา	-12973
แน่ชัด	-12974
แรงดัน	-12975
โดยนัก	-12976
ไทยลีก	-12977
▁clear	-12978
▁ชีวิต	-12979
คาราบาว	-12980
พระบิดา	-12981
สุดท้อง	-12982
หมู่ที่	-12983
านุวงศ์	-12984
เซเนกัล	-12985
แห่งการ	-12986
▁ชาวไทย	-12987
▁ดราม่า	-12988
▁บุนนาค	-12989
▁พระนาม	-12990
▁อิเล็ก	-12991
ก็ได้แก่	-12992
ก้าวหน้า	-12993
คัฟเวอร์	-12994
น้ําดื่ม	-12995
ปฏิกิริย	-12996
เข้ารหัส	-12997
เซลเซียส	-12998
▁company	-12999
▁มันเป็น	-13000
▁มีเพียง	-13001
▁เป็นนคร	-13002
กันและกัน	-13003
ที่ทําการ	-13004
ที่มีชื่อ	-13005
อย่างอื่น	-13006
เรื่องแรก	-13007
แนวดราม่า	-13008
▁คือวงกลม	-13009
▁จากเมือง	-13010
▁นักเรียน	-13011
การจัดตั้ง	-13012
ความมั่นคง	-13013
ความเข้าใจ	-13014
ที่เหมาะสม	-13015
นอลแฟนตาซี	-13016
บางครั้งก็	-13017
ยกฐานะเป็น	-13018
แม่ฮ่องสอน	-13019
กะโหลกศีรษะ	-13020
ความละเอียด	-13021
ด้วยเช่นกัน	-13022
▁บทโทรทัศน์	-13023
ซีรีส์เรื่อง	-13024
ประพันธ์เพลง	-13025
อีกครั้งในปี	-13026
▁จนถึงวันที่	-13027
ครอบคลุมตําบล	-13028
ภาษาอังกฤษว่า	-13029
สีน้ําตาลเข้ม	-13030
อักษรซีริลลิก	-13031
▁มณฑลกวางตุ้ง	-13032
▁เหรียญทองแดง	-13033
ของสิ่งมีชีวิต	-13034
▁ค้นฟ้าคว้าดาว	-13035
▁นี่คือรายชื่อ	-13036
ปฏิวัติฝรั่งเศส	-13037
▁เป็นตัวละครจาก	-13038
เทคโนโลยีราชมงคล	-13039
+0	-13040
bf	-13041
ภณ	-13042
pin	-13043
ris	-13044
นึก	-13045
บวม	-13046
บู่	-13047
หยง	-13048
าสา	-13049
เนม	-13050
เพร	-13051
ไพล	-13052
▁นู	-13053
back	-13054
over	-13055
side	-13056
จบลง	-13057
พราน	-13058
สถิต	-13059
หยัด	-13060
ารัฐ	-13061
ิร์ก	-13062
เฟิล	-13063
แข้ง	-13064
แท็ก	-13065
โฆษณ	-13066
โฟล์	-13067
ไฮดร	-13068
▁leg	-13069
▁ord	-13070
▁out	-13071
▁tel	-13072
▁มอง	-13073
▁ลอง	-13074
▁อธิ	-13075
▁แอง	-13076
กล่อง	-13077
คนต่อ	-13078
บน้ํา	-13079
มีลาย	-13080
ยางค์	-13081
วิสัย	-13082
สาธิต	-13083
ฮันน์	-13084
เจ้าม	-13085
เจ้าว	-13086
เอกภพ	-13087
เอสไอ	-13088
ในขณะ	-13089
▁hall	-13090
ของโรค	-13091
คัดออก	-13092
ทางไกล	-13093
มีอายุ	-13094
ลําธาร	-13095
อัศวิน	-13096
เที่ยง	-13097
แผนการ	-13098
และชาว	-13099
ใบหน้า	-13100
ได้กับ	-13101
ได้ยิน	-13102
▁0.0-0	-13103
▁เทอร์	-13104
กองกลาง	-13105
คนโตของ	-13106
จากเพลง	-13107
ชั้นที่	-13108
ฐานันดร	-13109
ต้องใช้	-13110
นิวตรอน	-13111
บาฮามาส	-13112
ประท้วง	-13113
มาจนถึง	-13114
มิชิแกน	-13115
ระบบการ	-13116
ากรรไกร	-13117
เขือเทศ	-13118
โปเกมอน	-13119
▁ทีมจาก	-13120
▁พระสนม	-13121
▁ลอนดอน	-13122
กลุ่มนี้	-13123
พบกันหมด	-13124
วิทยาเขต	-13125
อราเมอิก	-13126
อารยธรรม	-13127
เชียเนีย	-13128
เวลานั้น	-13129
ในตระกูล	-13130
ได้รับบท	-13131
▁ดัดแปลง	-13132
▁ตามเวลา	-13133
▁หมายเลข	-13134
▁และเปิด	-13135
กรุงปารีส	-13136
อังกฤษและ	-13137
เก็บรักษา	-13138
โทะกุงะวะ	-13139
ใช้เป็นยา	-13140
▁ย่อมาจาก	-13141
▁เป็นส่วน	-13142
รายสัปดาห์	-13143
สหภาพยุโรป	-13144
เป็นประธาน	-13145
เป็นศิลปิน	-13146
โกตดิวัวร์	-13147
ให้กําเนิด	-13148
▁เดอะสตาร์	-13149
ต่อไปนี้คือ	-13150
บัณฑิตยสถาน	-13151
ภาคตะวันออก	-13152
หมายปลายทาง	-13153
เส้นขนานที่	-13154
แบ่งได้เป็น	-13155
และวัฒนธรรม	-13156
▁ทรงเป็นพระ	-13157
▁เส้นนี้ลาก	-13158
ตะวันออกกลาง	-13159
มวยสากลอาชีพ	-13160
หม่อมราชวงศ์	-13161
▁คริสโตเฟอร์	-13162
▁เป็นหนังสือ	-13163
▁และภาพยนตร์	-13164
อุตสาหกรรมการ	-13165
เป็นที่ยอมรับ	-13166
▁องศาเซลเซียส	-13167
▁เพื่อเป็นการ	-13168
ของราชอาณาจักร	-13169
เขียนด้วยอักษร	-13170
▁ปัจจุบันเล่นใน	-13171
▁ออกวางจําหน่าย	-13172
ของประเทศเยอรมนี	-13173
ของสมเด็จพระเจ้า	-13174
แห่งลักเซมเบิร์ก	-13175
ki	-13176
sl	-13177
ศุ	-13178
็ล	-13179
arm	-13180
cip	-13181
its	-13182
itz	-13183
osa	-13184
reg	-13185
งอก	-13186
ตัม	-13187
ภาส	-13188
ลีส	-13189
หีบ	-13190
ันต	-13191
ากี	-13192
เฮน	-13193
โซ่	-13194
โดส	-13195
ไบร	-13196
▁bu	-13197
elop	-13198
tery	-13199
ของก	-13200
ชิ่ง	-13201
ซะงะ	-13202
ตะมะ	-13203
ปนาว	-13204
ปราช	-13205
ปะทะ	-13206
พลัด	-13207
ฟุจิ	-13208
ยีดอ	-13209
วาไร	-13210
สมบท	-13211
สสาร	-13212
สาทร	-13213
สาละ	-13214
ห่วง	-13215
อเนต	-13216
ิอุส	-13217
เนย์	-13218
เฝ้า	-13219
โปโล	-13220
ไวน์	-13221
▁off	-13222
▁reg	-13223
▁จิม	-13224
▁จุน	-13225
▁ปรี	-13226
▁ผ้า	-13227
▁เรด	-13228
hydro	-13229
ตัวลง	-13230
ตามมา	-13231
พัทธ์	-13232
ระฆัง	-13233
วาสาย	-13234
สมดุล	-13235
อาร์ม	-13236
ารีนา	-13237
เลนส์	-13238
เอคัพ	-13239
ได้มา	-13240
ได้ไป	-13241
▁open	-13242
▁วีระ	-13243
▁เน้น	-13244
▁ไมค์	-13245
ขายได้	-13246
ตัวตาย	-13247
ที่คณะ	-13248
ที่รวม	-13249
ปนาวุธ	-13250
ปราจีน	-13251
ป่าดิบ	-13252
ย่างใด	-13253
แกรมมี	-13254
ไม่มาก	-13255
ไม่รวม	-13256
▁state	-13257
▁ส่วนต	-13258
จุฬาโลก	-13259
พระธรรม	-13260
พอสมควร	-13261
มศักดิ์	-13262
หกวาสาย	-13263
ินทรีย์	-13264
▁ตอนที่	-13265
▁สาวงาม	-13266
▁เทศกาล	-13267
▁แต่การ	-13268
▁โดยให้	-13269
คล้องกับ	-13270
ที่พัฒนา	-13271
ทําประตู	-13272
นอร์เซกา	-13273
ภรรยาของ	-13274
อนุพันธ์	-13275
ฮอนดูรัส	-13276
เทวนาครี	-13277
เทศมนตรี	-13278
▁ที่สนาม	-13279
▁เอฟเอ็ม	-13280
▁แต่เป็น	-13281
ตรัฐมนตรี	-13282
ตั้งครรภ์	-13283
ตารางธาตุ	-13284
สถานะเป็น	-13285
อธิบายถึง	-13286
อันดอร์รา	-13287
เรียกชื่อ	-13288
เฮฟวี่เวท	-13289
และสามารถ	-13290
ในร่างกาย	-13291
ไดออกไซด์	-13292
▁ดอกสีขาว	-13293
▁หรือเป็น	-13294
▁เม็กซิโก	-13295
▁เรียงตาม	-13296
▁เศรษฐกิจ	-13297
ตราแผ่นดิน	-13298
ทางการเงิน	-13299
บนสังเวียน	-13300
บริษัทรถไฟ	-13301
พัฒนาทักษะ	-13302
พุทธยอดฟ้า	-13303
สิ้นสุดที่	-13304
ส่วนใหญ่จะ	-13305
▁ตําบลหนอง	-13306
ความแตกต่าง	-13307
ตอนเหนือของ	-13308
พระองค์เป็น	-13309
มงกุฏให้กับ	-13310
ในรูปแบบของ	-13311
ในศตวรรษที่	-13312
▁ดัชเชสแห่ง	-13313
▁มีที่มาจาก	-13314
▁รัฐฟลอริดา	-13315
▁ล้านปีก่อน	-13316
▁เป็นจิตรกร	-13317
▁เป็นสี่แยก	-13318
▁โดยใช้ชื่อ	-13319
สีน้ําตาลแดง	-13320
สีเหลืองอ่อน	-13321
▁มาจากคําว่า	-13322
▁เป็นนิตยสาร	-13323
▁เป็นแนวเพลง	-13324
ในปัจจุบันคือ	-13325
เติร์กเมนิสถาน	-13326
▁ประเทศอิหร่าน	-13327
▁อเล็กซานเดอร์	-13328
ประโยคแบบประธาน	-13329
▁จังหวัดสระบุรี	-13330
▁ตั้งอยู่ทางตอน	-13331
▁ออกฉายครั้งแรก	-13332
▁เป็นชาวจังหวัด	-13333
▁และสุริยุปราคา	-13334
ขึ้นครองราชย์แทน	-13335
by	-13336
cd	-13337
pi	-13338
ss	-13339
น่	-13340
▁๕	-13341
cus	-13342
enz	-13343
eth	-13344
ied	-13345
res	-13346
sup	-13347
ขาน	-13348
คัต	-13349
ดอม	-13350
ทอช	-13351
ผาก	-13352
ริฟ	-13353
หรา	-13354
ามะ	-13355
ารู	-13356
เกจ	-13357
เยล	-13358
เยอ	-13359
โน่	-13360
๊อบ	-13361
▁0%	-13362
▁0:	-13363
▁ยะ	-13364
aint	-13365
กะทิ	-13366
ของอ	-13367
บาตร	-13368
ล็อง	-13369
หนอน	-13370
ฮะระ	-13371
าวน์	-13372
เฟรด	-13373
เลนา	-13374
แท่น	-13375
แมรี	-13376
โซนา	-13377
โหรา	-13378
ไนท์	-13379
–000	-13380
▁pre	-13381
▁web	-13382
▁กัว	-13383
▁กาบ	-13384
▁บาน	-13385
▁ม้า	-13386
▁วีร	-13387
▁หมู	-13388
▁เวล	-13389
▁แคน	-13390
▁แซน	-13391
▁แอค	-13392
ดรูว์	-13393
ผลการ	-13394
ลาออก	-13395
อารัก	-13396
เนลล์	-13397
แบบมี	-13398
▁0:00	-13399
▁พงศ์	-13400
▁เหมา	-13401
กระบัง	-13402
ของคณะ	-13403
ตามที่	-13404
ที่วัด	-13405
พลาซิด	-13406
มีหนาม	-13407
หน้าตา	-13408
องค์โต	-13409
านุภาพ	-13410
เธอร์ส	-13411
เหงือก	-13412
เอิร์ธ	-13413
แยกเพศ	-13414
ในส่วน	-13415
▁00/00	-13416
▁great	-13417
▁เทียบ	-13418
▁โชกุน	-13419
ของธาตุ	-13420
ที่เน้น	-13421
ผิวน้ํา	-13422
มักเป็น	-13423
มีโอกาส	-13424
ร้านค้า	-13425
สันสกฤต	-13426
อยู่นอก	-13427
อายุมาก	-13428
ฮัมหมัด	-13429
เช่นนี้	-13430
เห็นว่า	-13431
▁00.000	-13432
▁บนเกาะ	-13433
▁บราวน์	-13434
▁วังชุก	-13435
▁สินค้า	-13436
▁ออกตาม	-13437
▁เลขที่	-13438
▁แต่ยัง	-13439
ดูเหมือน	-13440
ที่มีผู้	-13441
นําไปใช้	-13442
ศาสนสถาน	-13443
สุขุมวิท	-13444
แสดงละคร	-13445
โรเบิร์ต	-13446
ใหม่เป็น	-13447
▁(00,000	-13448
▁college	-13449
▁michael	-13450
▁ให้เป็น	-13451
การกระจาย	-13452
ครัวเรือน	-13453
จากอังกฤษ	-13454
ที่ราบสูง	-13455
บริเวณนี้	-13456
ประสิทธิ์	-13457
ผู้บริหาร	-13458
มหัศจรรย์	-13459
เลคพลาซิด	-13460
ในการเล่น	-13461
▁บ้านเกิด	-13462
▁ส่วนเพลง	-13463
▁อักษรย่อ	-13464
▁เมืองแคล	-13465
ทางหลวงสาย	-13466
น้องชายของ	-13467
นําแสดงโดย	-13468
เป็นที่ราบ	-13469
เพื่อที่จะ	-13470
เรียลลิตี้	-13471
▁หม่อมหลวง	-13472
ของหมู่เกาะ	-13473
ที่มีสมาชิก	-13474
นครนิวยอร์ก	-13475
สัมพันธมิตร	-13476
เดือนเมษายน	-13477
▁ซิงเกิลนี้	-13478
▁นิวซีแลนด์	-13479
▁มีกลิ่นหอม	-13480
▁มีพฤติกรรม	-13481
ความเป็นจริง	-13482
เพนซิลเวเนีย	-13483
▁แชมเปียนชิป	-13484
▁โดยปัจจุบัน	-13485
ชาวออสเตรเลีย	-13486
นัดกระชับมิตร	-13487
อเมริกันเกมส์	-13488
▁แชมเปี้ยนชิพ	-13489
ที่ก่อตั้งขึ้น	-13490
ที่สูงที่สุดใน	-13491
▁พบครั้งแรกที่	-13492
ครอบคลุมพื้นที่	-13493
ในช่วงสงครามโลก	-13494
ได้รับพระราชทาน	-13495
▁จัดอยู่ในกลุ่ม	-13496
▁พระองค์เป็นพระ	-13497
,000,000,000,000	-13498
▁ตั้งอยู่ในเมือง	-13499
▁ไทยพรีเมียร์ลีก	-13500
of	-13501
yo	-13502
ชุ	-13503
นง	-13504
นพ	-13505
สพ	-13506
ั๊	-13507
ไถ	-13508
iii	-13509
กิล	-13510
ดรี	-13511
ถอย	-13512
นตก	-13513
บีย	-13514
ปัว	-13515
ฝ่า	-13516
พัว	-13517
พ่น	-13518
ฟัก	-13519
ลืม	-13520
วงศ	-13521
สถ์	-13522
ัชฌ	-13523
าสน	-13524
เนร	-13525
แช่	-13526
แบง	-13527
โฮล	-13528
▁fm	-13529
▁id	-13530
▁มง	-13531
ider	-13532
กิ้ง	-13533
คานา	-13534
ค็อก	-13535
ซีจี	-13536
ดิเน	-13537
ม็อง	-13538
ลาวี	-13539
สหัส	-13540
เคาะ	-13541
เบร์	-13542
โรดม	-13543
ไตย์	-13544
▁boy	-13545
▁rep	-13546
▁sam	-13547
▁way	-13548
▁wcw	-13549
▁กุล	-13550
▁ชาล	-13551
▁ปาล	-13552
▁รัน	-13553
▁เชล	-13554
▁แคร	-13555
กําไร	-13556
ซองส์	-13557
ด์ที่	-13558
ถยนต์	-13559
บทกวี	-13560
รับชม	-13561
อาชีว	-13562
เงือก	-13563
เถียง	-13564
และใบ	-13565
▁good	-13566
▁หมวด	-13567
▁อาลี	-13568
▁อุณห	-13569
▁เทพี	-13570
▁แมลง	-13571
center	-13572
คลินิก	-13573
ซัมบิก	-13574
มารีโน	-13575
รากฐาน	-13576
รายวัน	-13577
วาดภาพ	-13578
ารักษา	-13579
เยรูซา	-13580
โดยมาก	-13581
โตเต็ม	-13582
ไทยและ	-13583
▁story	-13584
▁เฉลิม	-13585
▁เชื้อ	-13586
▁เรียว	-13587
ด์ปรีซ์	-13588
ตอนล่าง	-13589
ตามเวลา	-13590
นิ้วมือ	-13591
พยากรณ์	-13592
มอลโดวา	-13593
รัตนราช	-13594
สาวรีย์	-13595
หนึ่งคน	-13596
อกโฮล์ม	-13597
เอเอฟซี	-13598
แบนข้าง	-13599
แล้วยัง	-13600
▁กรมพระ	-13601
▁ตัวแทน	-13602
▁มาร่วม	-13603
▁แนวคิด	-13604
▁ในด้าน	-13605
ของทุกปี	-13606
บรรจบกับ	-13607
ปฏิชีวนะ	-13608
ปรากฏว่า	-13609
พระมเหสี	-13610
พุทธเจ้า	-13611
สกุลเดิม	-13612
ฮอลแลนด์	-13613
เพื่อใช้	-13614
แบบหนึ่ง	-13615
ใบอนุญาต	-13616
▁ผ่านทาง	-13617
▁มีฤทธิ์	-13618
▁หรือที่	-13619
▁หลังการ	-13620
▁แขวงบาง	-13621
กัปตันทีม	-13622
ครองแชมป์	-13623
ที่ปรึกษา	-13624
น่าจะเป็น	-13625
บาเลนเซีย	-13626
พระราชินี	-13627
สแมคดาวน์	-13628
เทศบาลนคร	-13629
เรื่องของ	-13630
ในภายหลัง	-13631
▁หน่วยงาน	-13632
ข้าวเหนียว	-13633
ที่แท้จริง	-13634
เครื่องใช้	-13635
เป็นผู้ชนะ	-13636
▁รัชกาลที่	-13637
▁เกี่ยวกับ	-13638
▁แบดมินตัน	-13639
▁และทําให้	-13640
ขั้นพื้นฐาน	-13641
คลองหกวาสาย	-13642
ภาษารัสเซีย	-13643
หลายเหลี่ยม	-13644
ไทยแลนด์ลีก	-13645
▁เป็นปลาที่	-13646
ประกาศเอกราช	-13647
พระชนมายุได้	-13648
อีกชนิดหนึ่ง	-13649
▁ความหนาแน่น	-13650
▁และกลายเป็น	-13651
ทางคณิตศาสตร์	-13652
วันอาทิตย์ที่	-13653
ในทวีปแอฟริกา	-13654
▁มีต้นกําเนิด	-13655
▁เมืองแคลการี	-13656
กายวิภาคศาสตร์	-13657
และเจ้าหน้าที่	-13658
▁เส้นเมริเดียน	-13659
ที่มีความสามารถ	-13660
เป็นที่รู้จักใน	-13661
▁จังหวัดนนทบุรี	-13662
▁นิยมเลี้ยงเป็น	-13663
▁เป็นปลาน้ําจืด	-13664
ในระดับปริญญาตรี	-13665
"”	-13666
ll	-13667
ani	-13668
div	-13669
ona	-13670
umb	-13671
ขิง	-13672
คอด	-13673
คุย	-13674
ซุม	-13675
ดีด	-13676
ทิส	-13677
นีส	-13678
บาป	-13679
พาท	-13680
พิง	-13681
ยาณ	-13682
รัณ	-13683
ราศ	-13684
วอย	-13685
สก็	-13686
สส์	-13687
าวง	-13688
โป๊	-13689
▁du	-13690
iter	-13691
part	-13692
ขวาน	-13693
จรวด	-13694
ฉลาด	-13695
ท่าม	-13696
หลอม	-13697
หั่น	-13698
อิจิ	-13699
ะวัน	-13700
เดโม	-13701
เนตร	-13702
เน่า	-13703
เยโว	-13704
แถลง	-13705
โบอา	-13706
่อยก	-13707
▁mov	-13708
▁sup	-13709
▁กอน	-13710
▁ขวบ	-13711
▁บอล	-13712
▁ลาย	-13713
▁อิง	-13714
olymp	-13715
ณหงส์	-13716
บนโลก	-13717
สมาธิ	-13718
เฉียบ	-13719
เชือก	-13720
เซนท์	-13721
เวนิส	-13722
แต่ก็	-13723
่ามือ	-13724
▁สูตร	-13725
กันที่	-13726
จีนตัว	-13727
ชุมทาง	-13728
ตะกร้อ	-13729
ผลผลิต	-13730
ลี้ภัย	-13731
อุปสรร	-13732
ียบัตร	-13733
เบิร์ด	-13734
ในกีฬา	-13735
ได้ใช้	-13736
๊กซ์ที	-13737
▁heavy	-13738
▁จากบท	-13739
▁อเล็ก	-13740
▁เปอร์	-13741
▁แบล็ค	-13742
eration	-13743
การทหาร	-13744
คุณธรรม	-13745
จึงต้อง	-13746
ที่เล่น	-13747
พระสงฆ์	-13748
ห่างไกล	-13749
อื่นอีก	-13750
ากระโดด	-13751
แบ่งตาม	-13752
▁ของการ	-13753
▁มากมาย	-13754
▁มาแล้ว	-13755
จัดพิมพ์	-13756
ซาราเยโว	-13757
ตึกระฟ้า	-13758
พรรณหงส์	-13759
ฟินิเชีย	-13760
สร้างวัด	-13761
สัมภาษณ์	-13762
สเตเดียม	-13763
อยู่เป็น	-13764
แก้ปัญหา	-13765
ไซบีเรีย	-13766
ไลบีเรีย	-13767
▁william	-13768
▁กินเวลา	-13769
▁วันในปี	-13770
▁เป็นรอง	-13771
▁แล้วจึง	-13772
▁ในบรรดา	-13773
▁ในแต่ละ	-13774
ด้านหนึ่ง	-13775
ถูกทําลาย	-13776
นอกจากนี้	-13777
นิวเคลียส	-13778
ภูมิทัศน์	-13779
ลิมเบิร์ก	-13780
ในสัปดาห์	-13781
▁ผลงานของ	-13782
เป็นบริษัท	-13783
▁การประกวด	-13784
▁คําสําคัญ	-13785
▁ออกวางขาย	-13786
กันดีในชื่อ	-13787
การออกอากาศ	-13788
ทีมเข้าร่วม	-13789
ปลูกเป็นไม้	-13790
พยัญชนะสะกด	-13791
สืบเชื้อสาย	-13792
▁กิ่งอําเภอ	-13793
▁ดอกออกเป็น	-13794
▁นักเขียนบท	-13795
▁เพลงนี้ได้	-13796
ผู้อํานวยการ	-13797
เดือนพฤษภาคม	-13798
▁เป็นองค์การ	-13799
▁และมุ่งหน้า	-13800
▁ใช้แทนเสียง	-13801
อีกอย่างหนึ่ง	-13802
▁จะจัดขึ้นที่	-13803
▁เป็นหน่วยวัด	-13804
▁ในประเทศสเปน	-13805
จะแสดงในรูปแบบ	-13806
ประกาศผลรางวัล	-13807
ออกวางจําหน่าย	-13808
ในภูมิภาคเอเชีย	-13809
ในสมัยรัชกาลที่	-13810
ได้รับการยกย่อง	-13811
▁ประเทศเดนมาร์ก	-13812
▁เป็นบุตรชายของ	-13813
▁โดยเส้นขนานที่	-13814
ทางหลวงเอเชียสาย	-13815
แห่งสหรัฐอเมริกา	-13816
▁คริสต์ศตวรรษที่	-13817
ha	-13818
je	-13819
mi	-13820
rs	-13821
คด	-13822
จฉ	-13823
ทก	-13824
ีล	-13825
ano	-13826
ero	-13827
ily	-13828
inn	-13829
unk	-13830
จุฬ	-13831
ชนก	-13832
ซื้	-13833
ดร์	-13834
ทท์	-13835
อีน	-13836
อึน	-13837
ิลี	-13838
เฟซ	-13839
โบร	-13840
โป้	-13841
โพด	-13842
โยน	-13843
▁(:	-13844
▁et	-13845
▁ฉะ	-13846
▁“"	-13847
cont	-13848
gram	-13849
reak	-13850
ครัฐ	-13851
ฆ้อง	-13852
ชีวิ	-13853
บดิน	-13854
บิ๊ก	-13855
มุระ	-13856
ยูเร	-13857
สตูล	-13858
สแตน	-13859
หลีก	-13860
อาซา	-13861
ังคม	-13862
ือร์	-13863
เวร์	-13864
โค้ด	-13865
โสภณ	-13866
โอไฮ	-13867
▁tna	-13868
▁ต้ม	-13869
▁ธัน	-13870
▁ปาง	-13871
▁สวม	-13872
▁หอย	-13873
▁เหว	-13874
▁แทร	-13875
ities	-13876
คลีโอ	-13877
งแหวน	-13878
จะทํา	-13879
จักรก	-13880
จากวง	-13881
บะห์น	-13882
บิชอป	-13883
บิดาส	-13884
ปิโตร	-13885
พาทย์	-13886
มอนต์	-13887
มาสค์	-13888
สองปี	-13889
เจลีก	-13890
เจียว	-13891
เซเวน	-13892
เรนจ์	-13893
เหม็ด	-13894
ไปใช้	-13895
▁this	-13896
▁ข่าน	-13897
▁ชาร์	-13898
▁ถ้ํา	-13899
▁ว่าน	-13900
▁สนิท	-13901
ของปลา	-13902
ครักษ์	-13903
ค่าตัว	-13904
คําตอบ	-13905
ชักชวน	-13906
ชาวยิว	-13907
ตุ๊กตา	-13908
ทรงจํา	-13909
ที่ทรง	-13910
นักสืบ	-13911
พํานัก	-13912
หน้าอก	-13913
หลบหนี	-13914
เคเบิล	-13915
เตอร์ส	-13916
เสิร์ฟ	-13917
▁ทัวร์	-13918
▁ศุกร์	-13919
▁เวสต์	-13920
การแข่ง	-13921
ต่อมาก็	-13922
นางเจ้า	-13923
ผลิตและ	-13924
พระโอรส	-13925
มอริทซ์	-13926
หลังของ	-13927
หอดูดาว	-13928
อัญเชิญ	-13929
เพศเมีย	-13930
ได้เข้า	-13931
ไพบูลย์	-13932
ไม่เป็น	-13933
▁คริสเต	-13934
▁ควบคุม	-13935
▁บางกอก	-13936
▁ในกรณี	-13937
ทางเลือก	-13938
ที่ระลึก	-13939
ธิบดีกรม	-13940
ลงเล่นใน	-13941
สันนิบาต	-13942
อากาศเอก	-13943
อ่อนมีขน	-13944
แคโรไลนา	-13945
แอร์เวย์	-13946
ได้แชมป์	-13947
▁ตามชื่อ	-13948
▁ทั่วโลก	-13949
▁เข้าฉาย	-13950
▁เดินทาง	-13951
กองทัพของ	-13952
ฆ่าตัวตาย	-13953
พระจันทร์	-13954
ยูโรวิชัน	-13955
รัฐศาสตร์	-13956
สินทรัพย์	-13957
อาร์เซนอล	-13958
แห่งนี้มี	-13959
โบราณสถาน	-13960
ในแอฟริกา	-13961
้น้ําแข็ง	-13962
▁ขึ้นเป็น	-13963
▁จําหน่าย	-13964
▁ชื่อเดิม	-13965
▁เป็นสาขา	-13966
▁และแชมป์	-13967
ขึ้นมาใหม่	-13968
ซิงเกิลแรก	-13969
ที่โด่งดัง	-13970
สุดท้ายที่	-13971
▁สายพันธุ์	-13972
ครั้งนี้จัด	-13973
ที่อุณหภูมิ	-13974
แอฟริกากลาง	-13975
▁เป็นดินแดน	-13976
▁เป็นรางวัล	-13977
▁เมืองเซนท์	-13978
▁แมคอินไตย์	-13979
ผ่าศูนย์กลาง	-13980
เขมรตะวันออก	-13981
ในปีเดียวกัน	-13982
▁จากโรงเรียน	-13983
ทางภูมิศาสตร์	-13984
อัลบั้มชุดแรก	-13985
เชื่อมระหว่าง	-13986
เลขาธิการพรรค	-13987
▁จังหวัดสงขลา	-13988
▁เป็นกล้วยไม้	-13989
▁ในประเทศเฮติ	-13990
ปีเตอร์สเบิร์ก	-13991
สนุกเกอร์อาชีพ	-13992
▁ดอกเป็นดอกช่อ	-13993
▁ประเทศอียิปต์	-13994
▁แต่ในปัจจุบัน	-13995
ความสามารถในการ	-13996
▁เมืองเลคพลาซิด	-13997
▁ในประเทศสวีเดน	-13998
ภาพยนตร์แห่งชาติ	-13999
▁สังกัดสํานักงาน	-14000
▁และสัญลักษณ์คือ	-14001
ji	-14002
oo	-14003
td	-14004
งอ	-14005
che	-14006
iew	-14007
orb	-14008
sen	-14009
tic	-14010
ule	-14011
umi	-14012
urb	-14013
yal	-14014
กึล	-14015
บีบ	-14016
ผิง	-14017
ฟูล	-14018
ริบ	-14019
สก์	-14020
ัทย	-14021
านะ	-14022
เจต	-14023
แทง	-14024
แวง	-14025
โพง	-14026
ไคล	-14027
ไธย	-14028
ions	-14029
king	-14030
กาลา	-14031
ซูลา	-14032
นาร์	-14033
นิชิ	-14034
ปลุก	-14035
ยามา	-14036
อาสน	-14037
ันติ	-14038
าวรี	-14039
ิศาจ	-14040
ียัง	-14041
เคย์	-14042
เต็ง	-14043
เล้ง	-14044
โน้ต	-14045
โปลี	-14046
▁mic	-14047
▁rad	-14048
▁von	-14049
▁เลย	-14050
▁แอป	-14051
ของนก	-14052
คอนติ	-14053
คาร์บ	-14054
จริงๆ	-14055
จะให้	-14056
ชาติด	-14057
ชิโนะ	-14058
ประกบ	-14059
ประจุ	-14060
ปรากฎ	-14061
อมแดง	-14062
ฮีโร่	-14063
ังเกต	-14064
ิจการ	-14065
เชียส	-14066
เดวิด	-14067
เนียบ	-14068
แอนต์	-14069
แอนน์	-14070
▁club	-14071
▁vein	-14072
▁กว่า	-14073
▁คารา	-14074
▁ชาห์	-14075
▁ธิดา	-14076
▁ธีระ	-14077
▁ปิยะ	-14078
▁ป้อม	-14079
▁ร้อง	-14080
▁เทเล	-14081
ground	-14082
กันกับ	-14083
ขนิษฐา	-14084
คเกอร์	-14085
จากนัก	-14086
ชายาใน	-14087
ยี่ห้อ	-14088
เวนตุส	-14089
แนวทาง	-14090
แม้แต่	-14091
และทาง	-14092
โตรีโก	-14093
โอไฮโอ	-14094
ไม่รู้	-14095
▁บารอน	-14096
▁อาวุธ	-14097
▁อุทัย	-14098
▁เคอร์	-14099
▁ใช้ใน	-14100
ization	-14101
คิดเป็น	-14102
คือเพลง	-14103
นั่นเอง	-14104
นียบัตร	-14105
มักจะมี	-14106
วงศ์นี้	-14107
วันหยุด	-14108
ศาลฎีกา	-14109
ส่วนหัว	-14110
ัจฉริยะ	-14111
เจ็บปวด	-14112
▁คํานี้	-14113
คบหาดูใจ	-14114
ชิ้นส่วน	-14115
ที่หนึ่ง	-14116
ปลายกิ่ง	-14117
มิสเตอร์	-14118
สูตรเคมี	-14119
เซ็นทรัล	-14120
เวอร์จิน	-14121
แรกของวง	-14122
ไวยากรณ์	-14123
▁ตัวเล็ก	-14124
▁ผู้ช่วย	-14125
กันทั่วไป	-14126
จํานวนผู้	-14127
ทางกายภาพ	-14128
ที่พบบ่อย	-14129
ผลงานเพลง	-14130
มีรูปร่าง	-14131
ยังสามารถ	-14132
ลาดกระบัง	-14133
วอร์เนอร์	-14134
อธิการบดี	-14135
เชื้อชาติ	-14136
แพ้คัดออก	-14137
ในการ์ตูน	-14138
▁เกิดขึ้น	-14139
▁เว้นช่วง	-14140
▁แต่ไม่มี	-14141
▁ใบเป็นใบ	-14142
ขยายพันธุ์	-14143
ความรุนแรง	-14144
ถาปัตยกรรม	-14145
ถือกําเนิด	-14146
ที่ผลิตโดย	-14147
ปราจีนบุรี	-14148
วยร์โตรีโก	-14149
ส่วนผสมของ	-14150
แต่อย่างใด	-14151
แม่น้ําสาย	-14152
และนักร้อง	-14153
▁ที่ทําให้	-14154
▁อีกมากมาย	-14155
▁โทะกุงะวะ	-14156
▁ได้ประกาศ	-14157
กี้น้ําแข็ง	-14158
ประติมากรรม	-14159
มียอดขายรวม	-14160
ส่วนใหญ่ของ	-14161
อย่างรุนแรง	-14162
เรอัลมาดริด	-14163
ในประเทศลาว	-14164
▁ซึ่งแปลว่า	-14165
▁สรุปเหรียญ	-14166
▁หมายถึงการ	-14167
▁หรือประมาณ	-14168
กษัตริย์แห่ง	-14169
ทั่วโลกที่มี	-14170
นี้จะดําเนิน	-14171
มาสค์ไรเดอร์	-14172
เนื่องจากการ	-14173
โมเดิร์นไนน์	-14174
ในหลายประเทศ	-14175
ใหญ่ที่สุดใน	-14176
ใหม่อีกครั้ง	-14177
▁หมายความว่า	-14178
▁เกิดเมื่อปี	-14179
กระทรวงกลาโหม	-14180
คัมภีร์ไบเบิล	-14181
▁มีค่าเท่ากับ	-14182
ที่จะจัดขึ้นใน	-14183
วิจารณ์บันเทิง	-14184
สํามะโนประชากร	-14185
▁เนื่องจากเป็น	-14186
▁แต่งทํานองโดย	-14187
กีฬาของนักศึกษา	-14188
ผู้บัญชาการทหาร	-14189
อีกชื่อหนึ่งว่า	-14190
โตเต็มที่ประมาณ	-14191
แพนอเมริกันเกมส์	-14192
▁จังหวัดเชียงราย	-14193
ทม	-14194
บฏ	-14195
บอ	-14196
ble	-14197
ชิญ	-14198
ฝอย	-14199
พหล	-14200
พัล	-14201
รีบ	-14202
วชู	-14203
ฮุย	-14204
เงะ	-14205
เอจ	-14206
แซค	-14207
โยค	-14208
โอต	-14209
ไห่	-14210
▁py	-14211
▁ทศ	-14212
ages	-14213
ฉลาม	-14214
ชิระ	-14215
ซีเอ	-14216
ตรีก	-14217
นึ่ง	-14218
พลิก	-14219
พอลิ	-14220
มนต์	-14221
ริ้ว	-14222
เซ่น	-14223
โค้ช	-14224
ไรต์	-14225
▁alb	-14226
▁mer	-14227
▁pal	-14228
▁sur	-14229
▁ควร	-14230
▁จัส	-14231
▁ดาบ	-14232
▁ตึก	-14233
▁มัส	-14234
▁ยุน	-14235
▁หาด	-14236
▁เพ็	-14237
▁แอด	-14238
iidae	-14239
ister	-14240
super	-14241
กระเป	-14242
กาบอง	-14243
ชิโกะ	-14244
ชีพิต	-14245
ซาวด์	-14246
ดิเรก	-14247
ดีฟส์	-14248
ติกาล	-14249
นักรบ	-14250
บท้อง	-14251
พยาธิ	-14252
พิชัย	-14253
พิพาท	-14254
ภิไธย	-14255
รินทร	-14256
ลอร์ด	-14257
สามคน	-14258
ส่งผล	-14259
ออสโล	-14260
เจ้าร	-14261
เนบิว	-14262
เฮล์ม	-14263
โครยอ	-14264
ในสภา	-14265
้ากับ	-14266
▁00/0	-14267
▁show	-14268
▁ซีซี	-14269
oideae	-14270
กระบวน	-14271
ของเขต	-14272
ทรานส์	-14273
ประยูร	-14274
สหรัฐฯ	-14275
สํานวน	-14276
อนันต์	-14277
อินดี้	-14278
ารัตน์	-14279
เอกภาพ	-14280
แบนตัม	-14281
ให้คํา	-14282
ได้ยาก	-14283
ไม่ถึง	-14284
▁ตกรอบ	-14285
▁ภักดี	-14286
▁สันติ	-14287
▁อาร์ช	-14288
▁เรือง	-14289
▁แซรอส	-14290
▁ใบรูป	-14291
กันเซ็ง	-14292
ท้ายทอย	-14293
ปืนใหญ่	-14294
ผู้อื่น	-14295
ภาพถ่าย	-14296
ร่วมงาน	-14297
วรรณคดี	-14298
วุ่นวาย	-14299
หลวงพ่อ	-14300
เจ้าจอม	-14301
แต่เดิม	-14302
▁design	-14303
▁ซับบาธ	-14304
▁ที่เคย	-14305
▁นางสาว	-14306
▁ฟิลลิป	-14307
▁มีเดีย	-14308
▁ในเพลง	-14309
▁ได้นํา	-14310
คาวงแหวน	-14311
จันทรคติ	-14312
ช่วงปลาย	-14313
ผู้สร้าง	-14314
พิธีกรรม	-14315
รักษาการ	-14316
เฉพาะทาง	-14317
เพชรเกษม	-14318
เร็วกว่า	-14319
แซรอสที่	-14320
แอฟริกัน	-14321
โพรโทคอล	-14322
โมซัมบิก	-14323
▁windows	-14324
ช้างเผือก	-14325
ซานมารีโน	-14326
ที่ทํางาน	-14327
พี่ชายของ	-14328
ยูโรเปียน	-14329
สตอกโฮล์ม	-14330
เขียนเป็น	-14331
ในช่วงต้น	-14332
▁จอห์นสัน	-14333
▁ตั้งชื่อ	-14334
▁นิวยอร์ก	-14335
▁อะคาเดมี	-14336
กระแสไฟฟ้า	-14337
ขับเคลื่อน	-14338
พระที่นั่ง	-14339
ิร์นมิวนิก	-14340
เกษียณอายุ	-14341
เมล็ดเดียว	-14342
ในชุดแซรอส	-14343
▁ของรายการ	-14344
▁ทํานองโดย	-14345
▁พร้อมด้วย	-14346
▁เทคโนโลยี	-14347
ดัดแปลงเป็น	-14348
ที่ส่วนใหญ่	-14349
ระดับประเทศ	-14350
เครือจักรภพ	-14351
เป็นรายชื่อ	-14352
▁จากทั่วโลก	-14353
▁นักร้องนํา	-14354
▁พัฒนามาจาก	-14355
ของประเทศจีน	-14356
เล่นตําแหน่ง	-14357
เหตุการณ์ทุก	-14358
เอลซัลวาดอร์	-14359
แห่งออสเตรีย	-14360
▁สถาปัตยกรรม	-14361
▁แซรอสชุดที่	-14362
ที่มีขนาดเล็ก	-14363
ประโยชน์ในการ	-14364
ศาลรัฐธรรมนูญ	-14365
▁ของประเทศไทย	-14366
มอบมงกุฏให้กับ	-14367
ศิลปะการต่อสู้	-14368
เดือนพฤศจิกายน	-14369
ในคริสต์ทศวรรษ	-14370
▁จํานวนประชากร	-14371
▁มีสุริยุปราคา	-14372
▁รายชื่อทางแยก	-14373
พระบรมราชโองการ	-14374
ในระดับนานาชาติ	-14375
▁ของสุริยุปราคา	-14376
▁แต่มีชื่อเรียก	-14377
ชิงถ้วยพระราชทาน	-14378
▁กินเวลาทั้งสิ้น	-14379
ts	-14380
ณิ	-14381
acy	-14382
ald	-14383
aya	-14384
ety	-14385
nwa	-14386
ops	-14387
rad	-14388
tml	-14389
top	-14390
uan	-14391
ชีน	-14392
ภู่	-14393
ฮัล	-14394
เอด	-14395
โขน	-14396
▁//	-14397
▁ak	-14398
▁ca	-14399
▁ทร	-14400
▁อบ	-14401
▁แย	-14402
▁ไส	-14403
ayer	-14404
ield	-14405
ient	-14406
กาแล	-14407
จื่อ	-14408
ถนอม	-14409
ถล่ม	-14410
ทะลุ	-14411
นนี่	-14412
ปอร์	-14413
ป่วน	-14414
พึ่ง	-14415
ราโด	-14416
ฤๅษี	-14417
เขาก	-14418
เถระ	-14419
ในสม	-14420
ไพร์	-14421
ไอบี	-14422
▁bel	-14423
▁bur	-14424
▁mel	-14425
▁mem	-14426
▁sim	-14427
▁sun	-14428
▁tim	-14429
▁tom	-14430
▁คัพ	-14431
▁คาน	-14432
▁ซิส	-14433
▁มิต	-14434
▁สัต	-14435
▁แซม	-14436
▁แบน	-14437
▁โมะ	-14438
ramid	-14439
ถัดไป	-14440
บาดาล	-14441
ยกทัพ	-14442
รบกับ	-14443
รีที่	-14444
ฮิตซ์	-14445
ังคับ	-14446
เขาจะ	-14447
เจแปน	-14448
ในอีก	-14449
▁กวาง	-14450
▁นันท	-14451
▁ปลาส	-14452
▁อุดม	-14453
▁เพย์	-14454
ชัยนาท	-14455
ชื่นชม	-14456
ซัมซุง	-14457
นางเอก	-14458
ปริซึม	-14459
ผูกพัน	-14460
มีเส้น	-14461
รณรงค์	-14462
ฤษฎีกา	-14463
ลําบาก	-14464
สหกรณ์	-14465
หน้าจอ	-14466
เขาสูง	-14467
เซียร์	-14468
เพศชาย	-14469
แก่การ	-14470
แสงแดด	-14471
โทรนิก	-14472
โมชั่น	-14473
▁japan	-14474
▁นิยาม	-14475
▁ภรรยา	-14476
▁ศึกษา	-14477
▁โจนส์	-14478
กระต่าย	-14479
ชิ้นนี้	-14480
ประหยัด	-14481
วงเวียน	-14482
สกุลนี้	-14483
อเรชั่น	-14484
าสามารถ	-14485
ุกระจาย	-14486
เด่นของ	-14487
เต็มตัว	-14488
เล่าถึง	-14489
แนวโน้ม	-14490
และอดีต	-14491
โตโยต้า	-14492
โปรดให้	-14493
ไม่ทราบ	-14494
▁island	-14495
▁robert	-14496
▁ขุนนาง	-14497
▁นําโดย	-14498
▁มาเป็น	-14499
▁สวรรคต	-14500
▁แผ่นใบ	-14501
▁โดยทีม	-14502
การปล้ํา	-14503
ของสโมสร	-14504
จากบทบาท	-14505
มุ่งเน้น	-14506
ระยะสั้น	-14507
หน้าใหม่	-14508
เก็บน้ํา	-14509
เช่นนั้น	-14510
เป็นแผ่น	-14511
ใหญ่กว่า	-14512
▁ดิสนีย์	-14513
▁ตําบลนา	-14514
▁ปฏิบัติ	-14515
▁ใช้เวลา	-14516
▁ในกลุ่ม	-14517
จิ้นฮิตซ์	-14518
ตอนใต้ของ	-14519
ทุกวันนี้	-14520
บะห์นาริก	-14521
ประจําทาง	-14522
ปักตะกร้อ	-14523
มหาบัณฑิต	-14524
สิ่งพิมพ์	-14525
อยู่ในเขต	-14526
อย่างง่าย	-14527
และไม่ใช่	-14528
แห่งเดียว	-14529
▁ร่วมด้วย	-14530
▁เพรสลีย์	-14531
ของรัสเซีย	-14532
ชีพิตักษัย	-14533
ที่ชื่อว่า	-14534
ที่มีบทบาท	-14535
รอบสุดท้าย	-14536
สัญชาติไทย	-14537
เพื่อนบ้าน	-14538
ในมาเลเซีย	-14539
▁จากนั้นก็	-14540
▁จากประเทศ	-14541
▁สุริยุปรา	-14542
▁เข้าวงการ	-14543
▁เป็นต้นไป	-14544
▁เป็นอาคาร	-14545
▁ไอร์แลนด์	-14546
กรังด์ปรีซ์	-14547
ของอาณาจักร	-14548
จะได้รับการ	-14549
จักรยานยนต์	-14550
เข้าร่วมกับ	-14551
แสดงให้เห็น	-14552
▁การเดินทาง	-14553
▁ออกฉายในปี	-14554
▁เป็นศิลปิน	-14555
▁โดยเป็นการ	-14556
▁ไมโครซอฟท์	-14557
ปาปัวนิวกินี	-14558
ระดับความสูง	-14559
▁ที่เรียกว่า	-14560
▁อย่างไรก็ดี	-14561
▁เป็นพื้นที่	-14562
ดําเนินการโดย	-14563
ดําเนินรายการ	-14564
ทําให้เกิดการ	-14565
รูปสามเหลี่ยม	-14566
▁กรุงเบอร์ลิน	-14567
▁หรือชื่อเดิม	-14568
▁เรื่องราวของ	-14569
▁โรงเรียนบ้าน	-14570
ชีวิตประจําวัน	-14571
ระนาบศูนย์สูตร	-14572
ในเดือนกรกฎาคม	-14573
▁ภาษากะเหรี่ยง	-14574
▁เป็นพระโอรสใน	-14575
▁การแข่งขันกีฬา	-14576
▁มาจากภาษาละติน	-14577
"(	-14578
gy	-14579
hi	-14580
aby	-14581
can	-14582
ube	-14583
กฤษ	-14584
กิก	-14585
ชุบ	-14586
นุช	-14587
มโน	-14588
รุง	-14589
สมิ	-14590
อิด	-14591
ฮาล	-14592
ฮุน	-14593
ากิ	-14594
เภา	-14595
เระ	-14596
เวอ	-14597
โผล	-14598
๋วย	-14599
▁ry	-14600
▁ซุ	-14601
▁๒๔	-14602
even	-14603
rain	-14604
ข้อบ	-14605
คะนะ	-14606
จานุ	-14607
ช็อก	-14608
ญจนา	-14609
ทุ่ม	-14610
ปรมา	-14611
ล้ํา	-14612
หมอก	-14613
อย่า	-14614
ิตส์	-14615
ิร์ท	-14616
ุดิบ	-14617
เจนี	-14618
เน็น	-14619
เบ็ด	-14620
เริง	-14621
เฮลิ	-14622
โนว์	-14623
▁box	-14624
▁dan	-14625
▁fed	-14626
▁ขั้	-14627
▁ทิม	-14628
▁บัญ	-14629
▁ฝัก	-14630
▁สก็	-14631
▁ฮิต	-14632
▁เซล	-14633
▁แคม	-14634
▁แพล	-14635
▁โฆษ	-14636
กิติ์	-14637
คว่ํา	-14638
จะนํา	-14639
ดาหาร	-14640
พากษ์	-14641
มาร์ค	-14642
ลําภู	-14643
สร้อย	-14644
สายตา	-14645
อาร์ช	-14646
ืองาน	-14647
เดบิว	-14648
เปสต์	-14649
เอสเต	-14650
โกลด์	-14651
ใส่ใน	-14652
▁jack	-14653
▁land	-14654
▁mark	-14655
▁mart	-14656
▁ค่อน	-14657
▁ถ้วย	-14658
คิดว่า	-14659
คุกคาม	-14660
ตลอดปี	-14661
ตามแบบ	-14662
ที่พูด	-14663
นครพนม	-14664
รูปของ	-14665
ว่ามัน	-14666
สําอาง	-14667
อับดุล	-14668
ิมนุษย	-14669
เคานต์	-14670
เจอกับ	-14671
เนเซีย	-14672
เบรียล	-14673
โซเฟีย	-14674
โตริโก	-14675
▁มังกร	-14676
▁ยูฟ่า	-14677
▁เรียน	-14678
▁เหมาะ	-14679
▁โกลด์	-14680
inaceae	-14681
จะไม่มี	-14682
ชุดใหญ่	-14683
ทางเข้า	-14684
ที่บ้าน	-14685
ผลักดัน	-14686
ผิดพลาด	-14687
มิวสิคว	-14688
สหศึกษา	-14689
องค์แรก	-14690
อารักขา	-14691
อุปสมบท	-14692
านาชาติ	-14693
ูปถัมภ์	-14694
เงินทุน	-14695
เทิลนอน	-14696
เท่าที่	-14697
เปิดให้	-14698
เสรีภาพ	-14699
เอนไซม์	-14700
แอคเชิน	-14701
ไอแลนด์	-14702
▁artery	-14703
▁econom	-14704
▁grammy	-14705
▁people	-14706
▁ชลบุรี	-14707
▁สมบัติ	-14708
การจราจร	-14709
ขีปนาวุธ	-14710
คนที่สอง	-14711
ทางสถานี	-14712
ทุกครั้ง	-14713
ทําอาหาร	-14714
นามปากกา	-14715
ยังไม่มี	-14716
ล่าสัตว์	-14717
สืบต่อมา	-14718
หน้าต่าง	-14719
เช็กเกีย	-14720
ในกองทัพ	-14721
▁ของคุมิ	-14722
▁คือเพลง	-14723
▁ซึ่งชุด	-14724
▁ตามด้วย	-14725
กระแสน้ํา	-14726
ของสงคราม	-14727
คนหนึ่งใน	-14728
ที่จะเป็น	-14729
ที่มีขนาด	-14730
ที่ได้จาก	-14731
มักจะเป็น	-14732
สมัยสามัญ	-14733
เจอร์ซีย์	-14734
เฉียบพลัน	-14735
เมื่ออายุ	-14736
▁กองทัพบก	-14737
▁และกลุ่ม	-14738
กลุ่มหนึ่ง	-14739
กํากับดูแล	-14740
ครั้งหนึ่ง	-14741
จัดว่าเป็น	-14742
ทาจิกิสถาน	-14743
ผู้พิพากษา	-14744
สังกัดค่าย	-14745
โอเชียเนีย	-14746
▁ดอกเดี่ยว	-14747
▁สหพันธรัฐ	-14748
▁สารประกอบ	-14749
▁เที่ยวบิน	-14750
▁เป็นปาล์ม	-14751
▁ได้อันดับ	-14752
จําพวกหนึ่ง	-14753
ทั้งสองข้าง	-14754
อะลูมิเนียม	-14755
▁รายชื่อตอน	-14756
▁ละครเรื่อง	-14757
▁และหน้ารูป	-14758
▁โปรดเกล้าฯ	-14759
กิตติมศักดิ์	-14760
ที่ไม่สามารถ	-14761
สต็อปแอคเชิน	-14762
หมายเลขอะตอม	-14763
อยู่ในประเทศ	-14764
แตกต่างกันไป	-14765
▁heavyweight	-14766
▁กิ่งจังหวัด	-14767
▁เฉพาะทางแยก	-14768
▁เป็นบุตรชาย	-14769
ทางแยกบางแห่ง	-14770
มาตั้งแต่สมัย	-14771
สหพันธ์ฟุตบอล	-14772
▁ดอลลาร์สหรัฐ	-14773
▁ผู้อํานวยการ	-14774
▁ล้านปีมาแล้ว	-14775
ราชบัณฑิตยสถาน	-14776
ศิลปกรรมศาสตร์	-14777
เทศกาลภาพยนตร์	-14778
แบ่งออกได้เป็น	-14779
และนักแต่งเพลง	-14780
▁บนฝั่งแม่น้ํา	-14781
▁ประเทศกัมพูชา	-14782
▁ประเทศเลบานอน	-14783
▁เมืองซาราเยโว	-14784
▁โดยทั่วไปแล้ว	-14785
นําชายยอดเยี่ยม	-14786
โปรดิวเซอร์เพลง	-14787
▁ประเทศปากีสถาน	-14788
▁เป็นสกุลของพืช	-14789
▁ในพรีเมียร์ลีก	-14790
มรดกโลกสมัยสามัญ	-14791
ปม	-14792
ฟง	-14793
></	-14794
aba	-14795
den	-14796
gin	-14797
ids	-14798
mas	-14799
tet	-14800
ขูด	-14801
จัต	-14802
จูน	-14803
ฉาง	-14804
นิด	-14805
พาล	-14806
ว้า	-14807
สาป	-14808
หรู	-14809
หุน	-14810
ฮัด	-14811
เจา	-14812
เลว	-14813
เล็	-14814
แตร	-14815
แบก	-14816
โหด	-14817
ไพ่	-14818
▁rh	-14819
▁sa	-14820
▁ละ	-14821
alis	-14822
atch	-14823
atur	-14824
idge	-14825
span	-14826
กลัด	-14827
กะปิ	-14828
ขันธ	-14829
ควัง	-14830
คอล์	-14831
คู่อ	-14832
ซิลี	-14833
ซูรี	-14834
ติ่ง	-14835
นาคา	-14836
ฟรัง	-14837
ลาจล	-14838
วิไล	-14839
สดใส	-14840
สะแก	-14841
อมตะ	-14842
อสส์	-14843
อสูร	-14844
อุทธ	-14845
ัมป์	-14846
เซมิ	-14847
เลือ	-14848
แซร์	-14849
แฟรน	-14850
ไนด์	-14851
่นี้	-14852
▁div	-14853
▁was	-14854
▁กาม	-14855
▁คลอ	-14856
▁มาด	-14857
▁สัท	-14858
▁อาล	-14859
▁เทน	-14860
▁แมว	-14861
ament	-14862
annel	-14863
inter	-14864
กันมา	-14865
ขุนพล	-14866
คล่อง	-14867
คอนเฟ	-14868
บวร์ก	-14869
ฝ่ายน	-14870
มีแถบ	-14871
มุนด์	-14872
ยินดี	-14873
ระเบน	-14874
สปอร์	-14875
ารมณ์	-14876
เตี้ย	-14877
เบิ้ล	-14878
เรื้อ	-14879
โฟลด์	-14880
โอเอส	-14881
▁bone	-14882
▁flor	-14883
▁line	-14884
▁คนใน	-14885
▁ฟาร์	-14886
▁ยะมะ	-14887
▁ยุคล	-14888
▁หนอน	-14889
▁หลอด	-14890
▁อ้าง	-14891
▁เทย์	-14892
▁ไลฟ์	-14893
กันมาก	-14894
กางเขน	-14895
ควีนส์	-14896
จึงถูก	-14897
ซิลลิน	-14898
ทอเลมี	-14899
ที่น่า	-14900
พนมเปญ	-14901
พรรดิม	-14902
พระศรี	-14903
มิวสิค	-14904
สแตนต์	-14905
เกี้ยน	-14906
เจาะจง	-14907
เนรเทศ	-14908
เป็นวง	-14909
และงาน	-14910
ได้ออก	-14911
ไอวีบี	-14912
▁games	-14913
▁round	-14914
▁จอมพล	-14915
▁ณรงค์	-14916
▁มีนาย	-14917
▁วอร์ส	-14918
▁ศาสนา	-14919
▁สมุทร	-14920
▁โพธิ์	-14921
การตลาด	-14922
ครีบหาง	-14923
จานุเบก	-14924
ชาวกรีก	-14925
ซึ่งใช้	-14926
ตามชื่อ	-14927
ที่สนใจ	-14928
ผู้ช่วย	-14929
ราฟาเอล	-14930
หน้าของ	-14931
อมเขียว	-14932
อวอร์ดส	-14933
แต้จิ๋ว	-14934
แทนด้วย	-14935
ไวโอลิน	-14936
▁instit	-14937
▁united	-14938
▁กันตนา	-14939
▁ตํานาน	-14940
▁มิวสิค	-14941
▁ยอดเขา	-14942
▁รอบแรก	-14943
▁สตีเฟน	-14944
▁หรือมี	-14945
▁แต่ถูก	-14946
▁และเขา	-14947
ของยุโรป	-14948
ขากรรไกร	-14949
ถูกค้นพบ	-14950
ที่ยังคง	-14951
ที่เริ่ม	-14952
ฟุตบอลใน	-14953
ลุ่มน้ํา	-14954
สร้างและ	-14955
หมายความ	-14956
หลายภาษา	-14957
ในวงเล็บ	-14958
▁ชื่อว่า	-14959
▁ซึ่งเคย	-14960
▁และเข้า	-14961
▁แล้วนํา	-14962
▁ในแคว้น	-14963
จินตนาการ	-14964
จึงทําให้	-14965
ดาวอังคาร	-14966
ทีมฟุตบอล	-14967
บริหารงาน	-14968
ภาคต่อของ	-14969
มือกีตาร์	-14970
ราชการได้	-14971
รูปแบบการ	-14972
รูปแบบของ	-14973
สิริกิติ์	-14974
หลังจากจบ	-14975
ามวยปล้ํา	-14976
เขียนภาษา	-14977
โทรคมนาคม	-14978
ในด้านการ	-14979
▁คนต่อวัน	-14980
▁ฟังก์ชัน	-14981
▁มีประเทศ	-14982
▁ส่งผลให้	-14983
▁อาทิเช่น	-14984
▁เป็นชนิด	-14985
▁และยังคง	-14986
ทิ้งระเบิด	-14987
ที่แตกต่าง	-14988
ปลาตะเพียน	-14989
รวมเข้ากับ	-14990
เดอร์แลนด์	-14991
เป็นจํานวน	-14992
▁ของอายูมิ	-14993
▁ผู้โดยสาร	-14994
▁เทย์เลอร์	-14995
▁เป็นศัพท์	-14996
ชาวต่างชาติ	-14997
ดาวพฤหัสบดี	-14998
ด้านล่างนี้	-14999
ตะวันออกและ	-15000
ทางเหนือของ	-15001
เซนต์หลุยส์	-15002
เมื่อประมาณ	-15003
▁เป็นผู้นํา	-15004
▁เป็นอันดับ	-15005
บรมราชกุมารี	-15006
เป็นนักเขียน	-15007
ในต่างประเทศ	-15008
▁นอกเหนือจาก	-15009
▁หน้านี้เป็น	-15010
▁เครื่องหมาย	-15011
โดยคณะกรรมการ	-15012
ในโรงภาพยนตร์	-15013
▁หรือเรียกว่า	-15014
▁เนื่องจากการ	-15015
▁เนเธอร์แลนด์	-15016
▁แห่งเดนมาร์ก	-15017
ประเทศเวียดนาม	-15018
ริมฝั่งแม่น้ํา	-15019
ปฏิรูปการปกครอง	-15020
ผ่านการคัดเลือก	-15021
อํานวยความสะดวก	-15022
▁จังหวัดราชบุรี	-15023
▁ล้านชุดทั่วโลก	-15024
▁สตูดิโออัลบั้ม	-15025
มัธยมศึกษาตอนต้น	-15026
ว่าราชการจังหวัด	-15027
▁ซึ่งชุดแซรอสที่	-15028
▁ตั้งอยู่ระหว่าง	-15029
)(	-15030
?)	-15031
oy	-15032
ür	-15033
ฮง	-15034
ูญ	-15035
ima	-15036
ครุ	-15037
คีน	-15038
คุน	-15039
ชอง	-15040
ซุส	-15041
ทาส	-15042
พีน	-15043
ลู่	-15044
วัก	-15045
สซี	-15046
สัจ	-15047
เก้	-15048
เตย	-15049
โตส	-15050
๊าส	-15051
[...]
